{"name":"CHK-Personal-LipMotion-v3","version":3,"input_size":38,"training":{"videos_seen":28,"videos_used":20,"videos_rejected":8,"samples":6869,"source_duration_seconds":590.171,"labeled_duration_seconds":274.76,"source_files_embedded":false,"hidden_layers":[96,48],"validation_videos":4,"validation_mae":[0.154276,0.078034,0.091921],"validation_r2":[0.040739,0.503001,0.274765],"validation_visual_mae":[0.30578,0.205201,0.292192],"validation_visual_r2":[-0.089489,-0.09245,-0.273906],"seed":20260711,"teacher_model":"CHK-Personal-LipMotion-v2","visual_target_weight":[0.45,0.3,0.3]},"feature_context_offsets":[-5,-2,0,2,5],"audio_features":["rms","zero_crossing","transient","low_band","mid_band","high_band"],"input_mean":[0.0974358,0.0473354,0.0060845,0.7926465,0.126269,0.0735148,0.0969557,0.0477042,0.0060977,0.7953662,0.1272687,0.0732899,0.0962004,0.0481681,0.0061361,0.7961708,0.1275095,0.0738462,0.0963415,0.0485159,0.0061436,0.7955721,0.1275998,0.0745003,0.0968285,0.049252,0.0061811,0.7934273,0.1265412,0.0756651,-6.73e-05,0.0002758,1.4e-05,0.0002513,0.0002037,-1.82e-05,1.7581114,0.1057059],"input_scale":[0.1313802,0.0629783,0.0097054,0.2934381,0.2147627,0.188824,0.1308093,0.0626927,0.0096647,0.2896391,0.2155574,0.1876003,0.1297071,0.0631437,0.0098882,0.2889174,0.2158692,0.18952,0.1298885,0.064231,0.0098885,0.2891641,0.2158073,0.1903503,0.1312009,0.0662438,0.0099765,0.2921433,0.2149717,0.1927647,0.0595036,0.0379101,0.0045654,0.1704695,0.1225757,0.1176311,1.1152982,0.1384781],"layers":[{"activation":"tanh","rows":38,"cols":96,"weight_scale":0.0025850973,"weights_q8_base64":"PS5I88kL7Ogj57fbHNIhQcsPIjztzctGRu0FRy3wNDQ0xivB20rJre72GDFHL/QdLbxD30vVRu7wEPEQ7BECMSDmvDErFfj8DTwKSwYFNLYs0fYB2MxBuTQd3+4TNgTRPKbcFCwXwugV2AkyG95Qqrf4/RJPJTQV2dQVOClVFRQV9S28Be3uK/gUwPDfxQQSAt39rD78vQ8K/RL5FM/62BYc/wQV9NQcAgcq3hTY7U1A/S0fwg/3Lac+BEH5C8kI79vk5RLYAr0o//DjzdEW2/cnIrgpqS3b/hap7s+5P/b3BQXo3i8EqsJeI/828SRIK1o5zNo9/gHe0ffAXDtHCLm6x9TmEzrryycTvfUSl9m2AwzJFtLWQxrEJgjNuNDIRc/f8zHEMT0rAtgWL7tSOaLEI99CBcXzsR3tSEgq/qjSIUNWACzMxBb/1RjmGA438gxdK/naNqP8APlJJy014MD5/Q63BNXCrU3WGCADAR/I/EYKD738Bw1EyST/Nwq9vz3T1/Yi180ivhpGDB5AH8T9HvQACc0OwwIMBxHyG/kuEsvrykEP0e7SHBq5QdM6/wDmLEAKF00zyCfZBjgdOPIyGObPSwr78BW52MoqNAq7WNPHtCj8nQknNxfu+xQe5e/x5evGJhvK9jLi/+4XAdvqBOYvQyq6Ae445g7b6ShIBrsL5eQ2Ob8yBCrBHQTy+i8UJc/PNePXyds3FNvl1PCr7RYXRh/swdcL3eG0IUvW0ycjvxcCwfzY1dwz3xsCz7oPKwTqt/Ko574Uzi3ZBjLlyNsBzKkHD+kHs+TVyQ7vIPTtLuukUPwHM+w46xzrQDc92/Px9OCW/f29NkAV8AAYwzrsJvzpN+7EMdMl0boXGim9BSTvGcg63wft5sbz8vDLTBb1KwjHvOjz7TbZj9PLLPnrMwABMBYtwQvHROUAE7X/+fHUBgwM/PwOFs8XzS39LyssPBYb5CfLQUE1BUoMODg5IgdGPbyy2Sqv+NLMAd8c6a7HDRcg2cFcvi67TMpJ3hi/LFRNurnL3OwgMCEwvD/L8PTc3gsqGNj60k8PzxEz7y8DuOO7yh7qDdY84llASfnL9sz33ATI0PYaMhDkQ1Iy0fQwB9UiK+LEqxcxRQcPQdQ5NMpLAyhO4cc3FuTYATLHwhv2U+jT6k7NLBMluuhEssIABQMxvuopTdoC1RU8Ec0u/yS2COEyRwsA6tojPslME7AG8UIYwtkm+VEoPOrDpTO/xABFwQrhC03G8bBIQUkC+uMe5THNweYyCS/+ux4YOtMqMfLA5gsu5hEAXf3rK9S+PCvjwtYaHAL+HhfPDyfhIvrJ+tvmF7nC+CcZXwoG4uIW3fLhQN5IVu7Vyt78yQMUuQgP603W9zm548cC3jwXB8hYxdLCzDbX7DXz9NkcFgnRQa7SMBQhpfA7EPc61e3O5T8XrgrZ8C4i29LsNxfK5R/X7B/p5PLZAg0a0hqywQWv5iY7LysdAe9AJtfCHdbXyhHuACX5DyMR50EZRyzn3uLHzyfiBgxDLrkHABIzI+b3tU8c1S1LJ77yDMwc4wMi3iC3QQ3Xq6jZ6CX2yxvdChjY5QDF8sL5P/c9LNTD1uORLt/zziD3mC/f8vsMshosvA3u4hoM+9JD/tpDDL0HHukt8ilMF+tMSuTayqIlvPLxtwTkx8DNqscQygvL2fWzKj7mFNK9zuTjwQPQYKswKgQbRUNcuB/5w0LnRdgW2BT+HAs950H4DhjV+VXKGPg0JMg2IOEc3MAY8xsGtx8SEBL54ePBpRQd/hTVJ/JCtjjGRbzqQh3z19D8uTIaIbAHxLL0QtMf0jQLl/gZ5ODzO9Xpy8Tg4w/ECjfd0fAq4v0x9cK6S70B2BoQBb014sHL4yr7RzRE19G+9jC2O/PjANoRBv0+vCIB6DEE4Pj4StgTDcgn+d3F2cayAgnfxN8OFLr4sTLKot3SMdcnxdYP1xBSIBi001bMAdYU3wq4LQTZ2AQeO/u14+YfBiYPOR0OxiXHIO/9DzLOKDYWN8kF+xIXyvA5NDD/BjrTozoD4AxO0x0OHQ791DUDACopIvYSMswdwkgnzEU4PdgqDvM0wjDz11a1JrQlEdMwFTpVO08M3O7wwtND2zDtr+715xjhLiMDEh/mwEAC7N5CTOz74yL+zOQ7ODX5HRhRtg/sJswlCOjc+u4pENu2FCohx+atvyK+7DsaPQovvQrQE/lN2OgS8Ay+PL28AjxcGTX4BCLJ5foK6kYTwM34BPNK6dXd0QXW7kAhzOfB3y/NMAnvVRP5yNPHQCsYNu+9EB8nMSzE58Pi8wvN8yW8B+0g5iQgsN0SLykWTy46AjgnzyzcDvm//CgT+dgLQrQxOPYf6P/kq1oCTr4nDLkETN0Kx9K+GPHRvurOQTcE8P/3MNUb3RjQ2/rc5NDBMwc6MAMOxShGOsPM6jRF8QjOFPXQKTQV80wyFPJLMxsXxzb/AjckwRc1BfveNzUHRAcs5sUfLdDUOkgA4wXMpA0f6hUtukvFE04N0ULYOQTWFOre/zbSE/w+5gcCzAvv3NYP/fYeJsUyQfwF6xHy6eq14MlWwooXyr0DJ+QCKOUHrNsHKeAuEOzdzuG+1rD9RhhEofPc89La+vKxFAVU5DABCYEWSgxQndnB1TxX2CcX7ND9/dfbWAX8APXuBikrsdTC/McD+ijgMMEnGjvqEbPv+ezv17wcUsDgz+bfNy327C3O9rTH1e7KRfUG2Q6pP90h1vTcE9o2Pu3hBNMwyOgYqyL5Bi5DsfkN4cLiwdcfJDfYANrR0P4nvwa47CDw1N7h7K/DMLohGTyzHfJR9lPRxtwh19vQHicGG9gKGgYNGzXx0gs618naG7Qt0R/a0gbjId04KwnfJcMgRwQy7BwU3jbyNDdLFPnlGexeBywTCxkkxTA0yf7vsidC1SL526TZ2hzuDucy2S0d6usILu8R+McMxzD1/e4m/ATWJ88N9RoUAgwZ5h7QJckB/gDg8N3u3O7CKs8yHP/E+fku8g0s9xLTIgxBIP3eEfoBAjsXA90y5O40xOZK10CyEgAK+DsPMlAF2ORJE/uuGe7rtc0h9CbsPOvm68n+qsodQkQu4RvuBQT0L7j2Ogw3AzILI7lS8ucsDAgswBrg1yfcFw/O7Av2FnCxGu490gDZyPDTGBHd/xdGFEg+HCHVHjMxUv5BwfIqthAAVB8+Degy1MQ/MNG4JfdH4PgIwGf5ANYuBisqEsj5APYb7QjMygADDgXlMK7KLdECNQLJwjLXozRO4QokzfoFD9cqEM0OFAIEFeb5PuK9UQ7XPz36NdxBMNzHBsjY4QPLRSz0+LpkRkEPNDNmxw4qNvYDI9j81tzZ4+bF8bs12io0uNzoSd60LP3GLsKu9kI5Efav7QYHtP65NOrIPSs1qtm9BzVi2DtBKSMoPBP5UNTg2AnS6Df42/+yCwpQJOb8rzbW2eS/E7kzOwC2CiDpHelELOI13Csa8hjpPCHaIuPPJRz3GTMJHSkFHdPbSiCwHDNIyD5DUcc9xAHa9ycf/OUFIxsw1tEkzfLJBLorGN6yJSJD4MzOAb8fLTYizMVF1RtA7zE7wdDKNLsLuvzSLs8ixOW8Ax/L2CAO1C0d7hLRCvAfFzHXRR3o68IABxkUKPoOOQ8dAOXeCeoSGffBxOHwFAbsN7+4NLgjPfna5z5KDf7CEQTL3uoWXh2x/+Dtzhbx3MfiLa3JNwMdxikzy99EO8G/UTU7vtMp/SDLINMpDeQlRdUmJkL21t0puy/VJ+sm4PZAFNNBCegiKCTE5AcOUTgXO+PPscPz9xbN3rja/DLU9kTj2DEh+ci98zEBR+rMCh3iIUPU7z8jOO7zF0EERxQlC/ZHPSDPEA4CD8sOADX6+v8P2wPg0dY6Qy3IHvYPPznX4BGx/N0yBucj8+0UFxUWRbkO5x3dJRH/KjolB/coMDoR7N3zMfMQ7BMbFu/XCdnB4vD/DSsnB9UEGdcrLBDw0RtKK9zT3eknOQTP09DAHzc15uLE+/wM3N4yBSUPOcWwPtXF1q3JEdny1vHQOTHmMtEGvuMrIO4kEcbQOPnaLNruXf/1HSYtJ+KryCz4Ix8wTvn8/fMp/Mgmx0f0yg4lKdDLBwXs/9ErDNoGJg4lXw3tAPoLpf4i0vM00CUp8UH7/hwVOhXq9ucO6TbXIrGw/eVWy7boBP3g7KUTLcYP9b4YKtL8BPi9F+bx0jYqScEnIM7E88nL8x/3BewordvP2Bs06ycmQiZE9MAI3sIZuAD1KwoaHTTS7iLS9yg7IjP1AypG2Oo0INfPKiG+Mi/+BBnFEQE09ikgDyP92S//FgxADvYYA0DoHvbKKQTj+wMO7v4WIxDADCEJC/c1IB3o3LD88wPZAdvGzgY+wOlDWCgpTQsYywIY8v4B5B885hjxSj86K9r9MjXqPNC/4i8k0T4gFevrrkFD3TUOGCMAF+3S8rrYQt0JEgsm7OT007/VDRT+Lh3QCzIYiujJ7OkqFjztrtvNBhHjFgI0yS0IDMnlEw0+3cn6H+ra6cr3PxQgP8wUzbtBKg07E8882yHZQBlEABPLIAcrHQ66707hH765DuPXzPyn2au6PujVVy0p3eQtQkfuwwZQFQVJI+cnr0glt84SAzvj2b3TrsYAvNBEw0Uo19/c/tP+vcAm2ewXCCog5r3y9T/3Mvf5E8Na48kVPe7RvN4g7EMQv7ssNg/RQt5oux+6QCWwQcbQ3hYL8FcHMub2ouAB6LwT6w/PEOj/+9Qj8AIuESa6D/bTHPom6fnpvfYEUDb6BPSlEtjy0NXo1J3a/+0JIPnDBdQOJSX+5dPK7iDVw/0wEQzvu+Ud","bias":[0.002018,0.0663625,0.0665865,-0.083366,0.1720578,0.0991123,0.1061257,0.1120882,0.0703787,-0.2193189,0.1884536,0.0348641,0.2075068,0.1019167,0.0004966,-0.0246974,0.1317883,-0.23396,0.2522541,-0.1529954,-0.0430405,0.0085393,0.0149825,-0.1896004,0.2628355,-0.1417335,0.0060426,0.0421941,-0.2053687,0.0180371,-0.0370754,0.1355773,0.0353856,0.0022832,0.0698621,-0.0868924,-0.1863419,-0.1859994,-0.0646223,0.1734066,-0.1571765,0.164616,0.0608055,0.2393847,0.1128269,0.0718834,0.0369427,-0.1568821,-0.040719,0.2128264,-0.1562131,-0.0332578,-0.0891774,-0.0776927,0.0210786,0.1884605,-0.2937597,-0.1646435,0.0418324,0.1564104,0.0161565,0.1036728,-0.1790595,0.0777172,-0.0169492,0.1868182,0.1426521,-0.1732853,0.0015614,-0.0854785,-0.1969515,0.199556,0.0522926,0.2383498,0.1055286,-0.1354976,0.1827702,-0.1222364,0.0513873,0.1108404,0.0222673,0.1533717,0.0246193,-0.0512022,0.0306058,0.1541175,-0.0107259,0.2146405,0.1643507,0.0345531,0.1152695,0.1460505,-0.0870251,0.030956,-0.1357538,-0.2179836]},{"activation":"tanh","rows":96,"cols":48,"weight_scale":0.0025169971,"weights_q8_base64":"LywzHuIzIPGy3B9NxVUoycEJPiPP5NQFLjHOwUrBBjAFECInItjZ4gM599szREYcSQcD4u5DP+3MJk021M7fxMke7BfE1cboCxY5H0/j3OYxCd7p4+RE1BEQtlTdDSEB9Qv370w49QbH1cPPPBL5GjDuF9y15ST2GiMq1UsgKB0P6SIsuhsuzs4zRvw10ca5TcXMyzocHQ4L380U3gbr19bnoDAk07ILVefQ+Kwk1CQzHCcSwb0H8bjsBgMI6TEt/tYw7NDCxUPQGej1Wewh9gLM/O7z8TlQ/AQ2IPjOGfMuD+YkWRO5vcHZDv3wRvIBwDkk9NncG7rOGg0OzjBK0tP4EDQgyBUWF1bX+yQIz7r31QoOBjJB3Qop/kPyOiMm9txN8P74AAtCCc/fMrkgK/jh9AMsIvQ4u0URQM/LtMC71gD99RDU5ffeusMrBsv7ANQgEgMn39/MvfUe8bDN2OEACv+7udX4vb/u/SAhNKwUZe/txqkJy/7H1CAPLjw4ByLWEOPgw/wEF/Le1sPT4rMk3ATowAQu8/z38DMVKt40L0XLCAnY/s1BIizrLkrP+elNC7wzrSwQXuwhNg+9If7F4OXvC88h4+LO40EYMSnlgyT1Dize/dMJ/1PwDQIlO8rV5OYT+uHtEs0tVuwFKy4htfG6F85Wz+E8I+w4rbkp0wZRFQgqH+8xFUlDOEs/xS9CUkDN0+7iON7bwhkvEDPsBNc7CTUlEgPv3ivi/CbOM90CTOTX59gWAMro58j1M+8SwkJVxPz3KgkdtNPaBhDGJN7sBSUsSEgSIx4ITeopp+MiAEA1zwnZMf8RrcX4AxXvwNncCydhzcYXAUMmTFjY6OnUGsX/9tY00i0Y99IwKr7cxenY/BEeSDom+e0rJd6wRxbSNrvXuPMW/NrqExvCyC4GCM/AqfQSGgb6tAcGFSMzI70HR9jOOyr3FvfWEq8RBNY4Av62DFUU6b0Z8zbNJt4xD03b99EPMQdAtdPv4zIrOVPbVtXZBRnlxxa1IiEyJjvavAvBycbg/g5FyEY+4tfAucDSMA0N0DQ/7DW8qSjGCzke6A/v6v7+6+rmuSEjwsfP+u7c18TZXRU7Ix71LuMiNz/JGL33tePb4TksIU39XQAMWcImJhzj2/Wp+e/x07fcIxJADUsyqeTqAwPQ2kwur79JG6oF0dU7+tgeMjLvR8I+xUe2JB82E9v06b4+5MAaPw8VMbYfJAweUdjU2fDQAMk9OB9A+iEN3g7dChuy2bv4PA0YxkwOQ+8mLwnA3v4TDQ3ROUpCt8kn9L8CKhAR2/TFxky21yHb8hIE/u7w9OAkPtg5xf3VOQzctdEI7O+1A+1DxRAjw0Dx7MjcNzEyviXA/r9FwTUSvgbyS8e/xOAd/unUOA0/IuY/NO71zyg+PBI9wEEHIzcGCbcQHcMeOEYIJtspPgLB8THVCfz6QRJE1fmzASexxsbp+wP59CFIHAoCQ/urOBwEGBLWC0PHFrTNK0Al38EW5CYg0kMT4x9CVysD0MJNxC26K/wH2E4yCehL9v0N09EM17rEFFvS2t+8wfTS2yXIIvo1KTi/vv7fPODB5BfT9CyU30nVIyYCEjw8JrTJDv8JBPY2yPEh21b6RSfP7bc2zOcGXOEsPMHYCukRvuHtMBsAyhu/0/vN7iYlKsLd9sTM9w4txBI+vgTDBDIqOfo46jU16Bg5C88sLekfwtk+NA004BXtQhH21SLO6cu0N1IDAS4/0kTtwBD39cb7Ld/STUftIcPiHgTdFOm90+Tx+D/KCN2wFcbz8jpIE/m1EO++87xJyOvZ8wG+6CBSHbkK7PwYRtQA8T0D6ew4uT0CIh/g6wryPjbWzPnk7jPvIAUqysM6yQcJFkS6GezPIU0cuw45zeMl8eg29PO65DtJEufV8LhVLMsI+TpFHTQo/cm/wf8FT9f/Eg48pBXPYwDh1VXr8Qg1+7NPuCkP+hbJK+nu2UrowOkoBbAQ4kkpQ9KzM0Q//vPR/wb38ym6CjDC9CIM6jPtJcQSxLYAwjj59gYEJ8kpOz0ZF1HrENVMLU0eGMhIGuA32Aw9MhgByDvJywnq+kPyzwMRLPX8HfivLiw1QRAu5Qn3zNa+JxvaytY3wbvk7r8b9N9YKvcG7t363QceScUGGxUrGDjoP9Ih1urptQ0Eq+AC5dIovLscO0mr1eDcF7UkJrrM7S4zzMMRQCu3WtIc+zDq1uDOU+X6Ecoouh3V6ujf+dLLFesC3/3wL6w+DSzMukD4Gi/YR0of0/zAIr+82r7iE7dDA+Hm4CjVHADeONsg4OZJz9s2FwrNEv7QwvvbweAM0S4J5cIj90DKMQDSM/ToENfOyzL9QMa3Vhj/AjcYLjQ1+A4xSwT/zbfFVeQaFCbXJB4C6hDeQ/0s31Pv8wwf0i4jDBLZEbBBISX0AcMTMybkPDsd9TNWCs6wxNPgtrZO5T40y8AV5ibzO/7Ev8bbyz/qArhK4cDG3Q+xLSbV5ABl6BcTKiX/RwQbQwQe/jj98DnS2vrW3NsL5EwrKObUCdhDPQ5A6yEtXAfqJPA2yBXB7wv22NPSAdIJvt7nJh34yzDXPR0t+OkASkHx8BDsrzIfLeIJzSnuBg2y0tkM7BTl0fU3xA0gO7Tq2Tvs7CxFSPEbSPbJtisUS9QU6c/+3q67t7wwDEzn8zL1OzRKM0IjOTC70dRKE0cWAMDcsCjK7xgmJx4vx9Hy+b8wJRk94AIcHMc0CzUrORYb3ys33yU+78Pr+U48Bf1I7jLP2btQAtWtR/AAETDW79fd993N4fwsH//Y4PvyIy296ujLCgIf4TU8tgDL1sj8NN0d/OCpIdLyuMnwGSbsQkPK4Nc18BcR1QIFzvkcHwoqswkBJeAC5PJVpxe/V+/ZNvvQFNk0FSLVvff/HSoK5sgoE+34HeQB/Ms75gLL9eouOr3oI+jyOx+vwQ/h7z8HP/Xr/w4rxejAEEroEMblRDkP5Uvv4TocJAzu8x7MzyfzEwtOGgk78ibmAuLfK934I/UxRr7ySxM+KivlKecDMhxLLx01yCjHNPQty6gBycPMEgQi4BgiFDk3+dhHuCEC8ejxAt84Ig7J68BJGt7e8R0exBMLyu/9GNY47eBQG0AW31QpIrk4BL31uugFryLezxcHvC67uwLhDM81NOQlOuf38hDbGAcGRbwT1Q/o/zrGy/IHFju7yODDS/0CMBNHSj8bxfHE9vcuHCvh3eRKBRXozuYg10VL+7AeFhtR0hMc6RD9OgP3B9EjzDwFIDGyESvNN/LhM8DZruo/IUHIHQ0dy/4i0t868gwi9u31FALoJRy6rty6Nsku4Rv2zNAS/FImOcfX7cBVADkyshoYvVPkGvzC5UbYw1kt9TYC6Ck1yRHgBMjQue33P9w6Ecu/IywWsrU15gbJ8u4ZJ7z5UT0LKM/cKAP9/hMmPgNJyzba0ty31Mmy4QHR3eg5EuT8ElEQxNY/JTDOBCQOw/wt7EvjVu4wU/0dUtrBt7751sAM5PMkCxsWQC2/qsg81S8PAvbjMLUa68HLINbcNRE0Nb3/7NsVQwLpKMrj897KCCTBsyDB+f41BbbZ/tfh6iDd1NZQRivPEQcyQWIT3+sd2hMlyBoYwMrKO1fhBTTq1f4gGwYv1ttIOMIFx+If4OwwGgvf1s3VI7UHH841COT3Sa8bK+fTL0ncMfY8Ngv/QL/C8Ee6L8/bNgc2yLEFHfHz3PgtORD+ChSxvO3fLhrtP9E4tgPuGt0VwwG9xT8q2w35wyf5Ht0g/NIaTSft5Rz958b2P7E7S94SQyErGt8byy7ZHchA7vHQIgzhC/XCyF8HseUUuO5CBuXxRyzD1DIK1dHOPwnMSNoMCCoSMThL9gYP/g0i+tfn0xYEKQnAIA6ZuTffCr0zseACAwAJQtkVCw2/Fhfj2uu6yMzL9fkfRyrJE8Ubw/m3SFAJGQgExwIaxxxP86otLe76RxcPzg/R28/b/8swFkZLSrg73LQknufn3y4tAwgOLBe/y+5P3Db7Ouf5COvn+8DlxxsP/knv192/1/C9GcUb29XY5kYi6eza39lLQhHdxvgYxtbvysg+9sE5DwlDCLlNvPTt3PYmyNCwB/gyLibVxr7ZETQSJuQA3PU/98ALDT4U/LapGDfS+9Mcx9u9LUEm4ez5qt4vHScmtBxb7RMp+/vwMfPy2wHMBjFHQ+b9GB08/S/UykVKMt0Buw4R5yzQ9kIkAk7NGTgbywbgtCv1xxQf8Mvcy+0OSU0x3EjLNF0uNA/+8yXMvcY5HscX+yH8LhwsBPsOH97XLswcCP4z1+7Sx74gf9NLAvoB2yfdBcklEA3BHzn8s8lEwN8Y9Aguzu0U/c2mOkPsNfZANwPRPRpF1P/UQN40/+a+6RrINcNSCvMcqO9I6BXnNtEnCDjlybEPNSHQC6khuOgkvCUUDtAqPMchKjk2RSQ/EN47GMvSAw8lHvrV9UTNIBvW29AG5RYY79PQMTzJVr/pJjfNNAcyMKEV0DHhzLrQJbf0yQ0A3Suw78LLwhLhuvIaAxHzBDQnzgH4/8kOPwwhuAYK1eP/9NHUJCoO20fh4eIaN/ku+tHwGvcX5B/j/S1T5w4u8xm7IDT49OpJPMPA8LID3QsE1hcZAxzo/dn37i472jg6QdcCCtdKsMWxHi5l/B2zzkf3OdPr1j7FLxQfTRv52EIUSLU+ILoO/TDjLQI1yhTRBj3ex/tH88YrACs329ngBhkIy0Diz0ssrMfKvytG3jogTvb0Yi7kJrI5NvQ5+c3b7g7oUkndJAj53kL34dbU5zEn9P/azCRBFNlA69vZ5Nvu+/zv8BT/3/vmDscc7y9FwwInNu3UERg8xxwZ7z37B+X1JBw7G77HGr8ezzo/xgcbKTkBWgD8wUQhJ+k3PjbYB9v1RbfJxjXxNwIuSMXbRRXxHdsFOgUxJTgvRCIpxL26CqUZs8fIPMXVsxzt2QTf9Pz6SNfBL/jes8j2yrj+EUQOsOXENS8RvdvZHA9JPA7gEg0COiPPsCruNSYj8Tf9BDgHJrHXuzgkSrj51Tj2LvUgJxXsHdkFufcpPU8c2vTrNzLrXiLZ0/PdJfA/Dx7ZOQo3Ebso0R0Nxi0qzB8QsOYWzh7zPOcE3wjQFvEUzT74EcMJ39IUyhAS6+DT3i4UtsdJF7UVwQYFJEcb9f8n6EYtERI7Mso35tFS3Df+A8HkvMoXqQHlvOG4GMI2zAq7F1pNIdZH+A4t3C9MCENJKOr5AUYQ08MI5ukL4hbqGk00BDQ+F+W56QO6J8gsRUPsUAcYuukoHkMLAyUJG7LdtwMO5CU/SVr70fvmuML2sMy48/g8CMTjLcMDykO3AA/yRFAJJUAv2CEm6fEKt98ZOiz3E8DrGtnG7q/hAfQAQegAC8xCKxraEQX7+8FD2S4T+cni+zSy0h3vwrsQ9RjwPNUEvsUFDlH2zlLUzEfyPrvKBgwWRgvD5C+yv7/Nv9IVvzXmCqQDsAhD4bwW8SsuyvfAtir/RkgZLu/lwR/OCP7EJMrG99AjUfUprbQMRtzp8CDp2wjy0BWvPudFAMoNP/QsPS684tP69tnJEkoJBDsIVdjcL8zW0LMaHBDjBzkG4xNKzTg1LicJ6sHXAQtQOubt9Dc8ETLYJuMXtSXuHsse5ffMjwzpyTdCK9nuB+bk5FBFCUkvOhERIsQ3HAk0LyvR3dzgGeIbGQj77hblyA7728XD9hcjEhD3K65eLupHIwq3ycmyQyxOPrgpwRdC7frtvePyLRwf8jyyO90jteDvOSvCPdoi4RL9QukXF+LgN90q/r7U3CQfADEM0MLO0uwmVC1PumjhOCou40K6+yoZ69sMMrJk3DrDFTGn9AOp6MgPO/XbHLQsxd0z89rkKEsO4fjX304d4Fkmx93YBS7iIR3bANxP8y/gTxALOTq1yvVTMivvtkgZE7AorwJJFiEnKkb4L/vi0zDw7yXGx7/E7BXxzhIG9dRJ+Do84dMq4Azbz8FB1ePdJMElxxf5xNJWyFP2y8zMAurg7Av+CRMl0gD8Duo1JiscHx4a4cexBgIR1c0v78nQ5yrVtsYj2A/38w0j+CYw19PPRTU7Av4VL0wh8UwaQxjxuUFF3S/YRBcb","bias":[-0.1692231,0.0651643,0.2053667,-0.0317549,0.2165114,-0.0021653,-0.118714,0.092357,-0.1025967,0.177751,-0.0508925,-0.1068364,0.083983,0.1661145,-0.1894353,-0.0346132,0.1527162,0.1311274,-0.1062529,0.1933793,0.1074648,-0.1430902,-0.0821649,-0.0408279,-0.1418329,0.2038606,-0.0928744,0.0069905,0.0280262,0.1236121,-0.1168075,-0.0988696,-0.1342247,-0.0740611,0.082349,-0.1672689,0.0947852,0.1062752,-0.1806894,0.1709519,0.0236618,0.045379,0.179314,-0.141885,0.1079975,0.162098,-0.1127858,0.0571788]},{"activation":"linear","rows":48,"cols":3,"weight_scale":0.0023069919,"weights_q8_base64":"fECfvS/Me3/6MZzrpxlm15QFD7M0hDZv997AQ0Tas1TUGjZNncXocSBAK9ueVyusxDT1b1GpNL2VI0Tj6Y+fTdAfPlVGkcMnjlzMav0+VmbLYDA145QhR6CpZDLS1qLNbZcjLP4xX00d01mpG51MF5xARrz8KEdSqRRqoeoB8W8Fmx/vY91EKD/WyrsOfN5M","bias":[0.230997,-0.0222606,0.091373]}],"output_labels":["openness","width","roundness"],"blend_with_signal_model":0.42,"quantization":"symmetric_int8_weights"}
