{"name":"CHK-Personal-LipMotion-v4-DentalGuarded","version":4,"input_size":38,"training":{"videos_seen":32,"videos_used":21,"videos_rejected":11,"samples":6655,"source_duration_seconds":586.165,"labeled_duration_seconds":266.2,"source_files_embedded":false,"hidden_layers":[96,48],"validation_videos":5,"validation_mae":[0.122085,0.052059,0.058439],"validation_r2":[0.474017,0.667082,0.768276],"validation_visual_mae":[0.279141,0.184934,0.246716],"validation_visual_r2":[0.076959,0.07702,-0.075259],"seed":20260711,"teacher_model":"CHK-Personal-LipMotion-v3","fine_tuned_from":"CHK-Personal-LipMotion-v3","baseline_validation_mae":[0.134036,0.059905,0.089238],"baseline_validation_visual_mae":[0.297858,0.199683,0.29746],"visual_target_weight":[0.45,0.3,0.3]},"feature_context_offsets":[-5,-2,0,2,5],"audio_features":["rms","zero_crossing","transient","low_band","mid_band","high_band"],"input_mean":[0.105565,0.0474264,0.0072742,0.7983572,0.123506,0.0706709,0.1050408,0.0477894,0.0072856,0.801484,0.1239018,0.0706556,0.1042084,0.0481606,0.0073096,0.8023754,0.1240737,0.0711796,0.1043715,0.0483513,0.0072941,0.8021709,0.1242063,0.0713687,0.1049486,0.0487625,0.0072681,0.8002848,0.1232308,0.0719761,-6.69e-05,0.0002179,1.31e-05,0.0002981,0.0002411,-0.0001214,1.8249794,0.106736],"input_scale":[0.1358022,0.0641779,0.0136978,0.2905341,0.2140553,0.1854051,0.1352208,0.0638796,0.0136698,0.2863524,0.2141999,0.1844442,0.1341001,0.0641993,0.0138039,0.2856662,0.2144886,0.1864355,0.1342599,0.0649298,0.0137393,0.2855416,0.2144827,0.1864843,0.1356251,0.0663434,0.0136133,0.2883476,0.2135816,0.1881137,0.0622938,0.0371491,0.0055793,0.1682706,0.1211618,0.1164262,1.1394922,0.1430787],"layers":[{"activation":"tanh","rows":38,"cols":96,"weight_scale":0.0040431401,"weights_q8_base64":"Lyww89oK8O0X5MnyEOkrE88MHSj23uMpHPcHIxz/ISIk0hrW2Dbe0fHqHhk+CesRJdA95TDTMugBEvn+9AoAFw/l1RggFfv+CCgRMvwTHcou8/QJ19Au1iUS7fUVIwXhJL7tDB8T1OUO4wUdDO86zcr4BAo1IzEU7eMNJyUwAwwI8CXNCPH4GvkZ1/fo3Q8JBe0B0y0A1gkJ9QT5C+r65QwUBQMM8OgYBgAb5w/o6jciAiET1Q8GG7klCSz5BdgB7OTv4xrb9LYl+PL3xtkqyPsiIsUhtz/z8hO87Ne2JPz5BgXW3yMAq8NQKAAp4CwtJU0vydoxBgTw1O7FYTQyHLu31M3xGzDr0CIHz+zvktm0HQfdF9fMNQrKEQfot9O5LeDo9RvbHyMk/ukVINUqJsDgF+Aq/9oE1BXyLiMaA83pGyc8ABrh3BX/4A7xEwch9QdCGvzrIsr/AP83GRYf69j//A7XAebeyy/mDRIABBXUAi0JCND+AQkv3RYIIgjR1Szi4voX6eQT3hEnARAvE+X/Dv/8CeAA3AAICRPvCvoaB9/40ygE2u/hFBXQJNooAALwHSgACzIp4hLkBSwRH/0cEO/fLgP4+BLW89wjHwbVI+DczCAEywMiJRPj/QgV6ev29PndFw7W9Bjq//QT8eruC/YnMRzI9/Uo7BT58RUlAdj7+vIjJ9IaCxncDgn0ABr/FeHiJ+nj2fAaDOXy6u/K9BEMLRru2OUD5fDUESr78hkU3BL41gDh6Ogi7hUA5cYLHgDu0fS239MK1B7sCRft4OMF6sAPD/oOz/Pj3gfzEvz6HO3IPP8CL+4o7R7vKzQ37f78+uvHBfvQJh8G9AwP1C3rFfz1IuvoKd8w5NMREBvXBhf/C9Yx9QTx598L9vfTNg31FAzK0Ojz7Sjss97fH/7uIQMCKAYh3ArhJPIQD9kBC/7iCQcE+wUIFOIS5BsAISIrKwEQ8RPeNS4mBTUDJSQsGQgxKtTS3SbG9+LaA+oU6c/aDwQS6d881B/RV8M84xTFH08qubPO0ur4Gh8ruEDH8OXn6f02HNr9xGcTvxUf7iYXw+O1ziXsGOYy5GIjRf/GAM/x5Rm54ekTNxjkPzQi1PshAtsrKOXTqRsgRRX9M+k0N9BDEyhc5s81BfTo+yHf3Qf9OfLo+i3lGxAR0PEszeAABQIb1fgUN+b/4w0vFeMbAxjSAeoZLwr77OsfI+AyB8sI8SYM3OIW+S4ZJffcvybc1Qcu2gTsCzDh+80tMSUCAOYO8yXi1/IYAR/4yBUMJO8OGPrQ8hAW7wINPAPwG+TXJRj43ewVDgcAGQ7a+xX2EPvb/+r0C9nRAxwJRAP17PoJ8fvtIfIwMALl4+f95PoI2f4B8DPx8STO6dsA6DIOAuFC1eLO3iHrARf8CegWCgjqJMrnCQUf2vcjCfIj5+bb6ikNxPjw7xgZ597yFg7R8BLj+RXx7vf2/gAI3RHZ5v3P7BYoHhUUB+osE+XUGunm4Q73/hfvDhUJ9SMNIR/x4fTY4RT0CgUrG88KCgokH+r2xSsS6CAxFs3uE+IC+wYT2RTRMQbyzsTw8BoD7A/jBQnsBAfO8dj8JPgpId355u3CLeL53BECyyXk8A0IyggS0wP86RAFCNU3/OszAtAWGfQmABwsD/c8Nunp5LQNzvbt2ATyzNXoxNcL2Ajl5/PgGSnuCenJ4Orp0QbbR8AjFwkZKCdA2BAG3TP0Neb83w/3EgMk9THtFSLhADrgD/IwD9gvF/QD59MX7BYR0RMbCAX88vDVvxEU/Q7aHPE0sDTOOqfoPxf/0MAIuzYiFqEC2LgCHtAUyioMoOod2+30Nt/lyMTg7RLN9j3Zz+tD4gIu/brLRc4B5ycfFs0s6MLP6CYSOTVA6tfq7DrDMvcKB+wrDwI30Bb89Sv+4vv9NeIPBt0WAPfS6dPOAP3n1eoED9b7zh3sxOnhHO8X1+IG6Ao3DBDP5S7WAuoJ8AjNIgDn4wEQJvnP7+gSARoHHwwO4BLiFPP+DSPZGSYMI98A/g4L3fMhHB3wBh3pzSf96A4y5hYIFvv/0TL8/yMZGvMWK9wT1isR3zAhLNwdDgIl1iD07jbNFuYcC/ApAyFCJi4O7Pf40uMt4S/vyer98hzpGRT4DhPw0yYJ9OAsMPsE7xAE3+4pIyH/BAkt2Qj3Dt4SBu3u7+4pMOfXChwd4ADCzBjW+yoDKQIi0APkB/Mr5PEL/gXfItHg+BMyDiT19h7W8fkG+jEL59wDCwMq9+Dk5BDu7ykP4Ojg7iDhI/ryMg/13+zdNR0lDfHcBhcfIhfX59rn9gvi+RTOBAAI+CgExu8QKCAbNyUpCRsW2SjoEvfZABgO+egFNsYlJQAJ9v3uxUEBM88aA8j9L+j+z9/UC+fa2fLtKSf+5wD1IN8J8xTn7Pzn6eHYGvgkKggF0hwtKd7g8CQqAAfkEvHTFBYV+y4cBu0/IAgI3S79AhIY1QwrAwTrIR0ELgUM9tQBGdPYJikD8wrdvw8W/RQk1jXdDDsB4DPtIwLsBvft/CTlAvEk8AIF3Ar149YM9PMfJc8rPPgP9gLz2uap4NlV0I8p0LMEGgEPIPcB3eUIRuUoEPbi1uHJ2sH4Ow4tse/S87rY9vS0DP5P6jb7G4EIThdOquLQ4Ddd5h404tz2/ejcVAsIA/r/Disq1erW+tj//BXhIeIdDyzzBsr2+ujw59obK9rl4uf0Hxn78yHh/Mza5/bdKPL+7v3NKu8M5v3lCeswJvLtBuAd4u4NzRUB/hQv1/wM8djp0+YQHx/r/ubq2PUe1wjO9RT15u3t+M/gG90lABrLFO4tBTPq0/Ab5ezeGRYFEOsGEwkFGx/64wYo3t3qGdQh2Cjm3AX8F+kmGQDiH94XJQUg7BYM6B34Jywo//vrC/BNBxcQ8A0S4h8e3gTw0xYq4hD+17vt6BX2C+4n7xUS+PEIFvkDA9sM3gzr/vgjAAfcG+EH9RMM/Q8K+A7kFOUD//ru++L25e7hJuMYEPvZ//0h/gYf/Q/bGgksFvToCf74By4SF/Qe6/ce5/kp4SfUDAUD7CcEJTcE6uo7Gv++DfABzeEi/RX2LwXx8tX/z9crNS0b3g3vAP3uIdDqLAIu/CMMFM4n+fckCwcZ3w3l4B/m+P7k7BvrFUrMC/s12fnm3PHcGxLxCAVDCiYiHBTsCScjOAkl1/UbyhACOw4oC+oj4twrHejSF/dC8fkA2kf3994hAR8hBNkB//kM/QPc2/4FCf/uHsbEH98AIgbU2yTmxiUv4wAT1vH9BugWC90HDQgCC/T/JvHRNAHiIigFGOstL9vD+87R7PnJRxP2/bBkM0MbLi1rxwZNK+n6I+IB1d/c5NTC/b082iMl1dnoR+SyLAmtM7qz7DIfB/ir+A4EsQzCN+PBHC4xrNi/+CJN3zEuHxwpSv//R9Dl3hHS+Dju5vbZBgo2Du4Hyijp5+/LDd4gJATRBBrzFu8rHOko6x0S9w7wIBTwEu7mExD8ECAJFRj1EOXqLRTBEhw03SQoMdcr3v/p+xwb++z/ExMc7OQT3vziBNMbDObKGBkn59zeCuYMHh4V5d4c6wgn/R4o2ODaINIK2PDrHeEW0ufLAhTc7RML5CAO+gzcDfYMESnmKxAD9NL2CA0fGwIDIwgWBPrm/+QMFfbR2ur9DwT0JN7RI80RJPns8Co5C/zXEgXi6OYLORPFC+323Qzx6tr3HcvgIgIQ3R8T2vEnLNzdLBwo1usW/hPXFeMUBO8YKNgSFyv24+4k2iHjF+8S5wAjDNslC/USDxTZ8Qr/NRsXGOjr0NX7/Qzh797i+CDy/C3v5hQXAdrb+w8FPe7K/RPn+yXi+yUaF+37CxkGIhIhBfkwLR7TBhEEF9sJ7ScBBP4L8ADY3OknIyDeEPwPIiro4P/RBeYkAAgV7/YAEBAWKdYQ9QrfEwYWFygp9vYdIikF/PEBGfgH8xIWC/biBeDZ8gP7AxIe/9D7F+UXFwLs3AUwFuXW2OsLJgzl5uHjCyEi8+/u//ED59keBxUGJ9nOJOfV38LcDvvw3vfdIyftF+IA0uodEvAcC9rdI/nwJev9VgQGGh4cHNSo3B0IBg8gMgn4/Ocu8sss4Cjn3BghLMzUL/3tEc8UEeYYDQQjKxbrCf4RyvMX2BAy3RUyAiUQ+i8XHA3f9/QH1jfnJsa/++Yl1cvxEgTl9rQnHtkK/NUVGuEFBf/XDOr63yQiK+QjMN3cAenk9RoJAPMjzO3i5w4d7BQZIRIl99AB9d4Q0AT7HggQFxrp9Rvf/xohESLzCCBA4OQfD+HdDxbSFxgD9xPsBP4l+SMhAQ/77Rz1EgUoC/8SAyjsFPzjGALn/vkF2gUKIv7SDx0HDP4VERT378/8/wDwFeTT2gcl1vIrRxQdLgUF3QMM9uv46Roo8xD1JicTIPMEHxn2L+Pd8yQQ6CwSFv7uyhwZ6yYGBxYGCPzq+dbfJ+MCCgwT9u717dfh/g3/Dg/iBRL9vOvd+ekWCiz4zujXAAv7FwYq2RgH/9rsEAYy6eH2Fvf+8Nb7KwsVKuQH690nHBQmCN8j6xrsLg4cAgnbGf8eFwnb9zH1G8jLCevr3v+/7b3SKOXjPRoP5+ojLSz32Qc3CgUxFfohyzIYy9oL/ynk6NHczuD91Ocr0y0H6O3t/e4J3NEe7fQOFBwg7t7w9Sz1Jv3zDtdI+90TJvfY1OgQ8DAS1s0ZIwXlKeNK0BTPLBbLNtnd3wkK7TcIGvUAst8J58sJ6QTLCvAA998O7/8jChrL+PjhFPYb7/7y0fwJMx/s9/LGDuH64+j67bndAPISDPfcB+YFGRgDAuXbABHi2gQiCQjy2O0f","bias":[0.0230674,-0.0065922,0.0473019,-0.1039626,0.1779771,0.0874257,0.1149555,0.1294884,0.0876999,-0.1699674,0.112694,-0.030824,0.216047,0.0678427,0.0221013,-0.0561195,0.1078447,-0.2434322,0.2206066,-0.1461155,-0.0062347,-0.09109,-0.0761725,-0.153913,0.1971112,-0.1958049,-0.0018478,0.0880102,-0.2677262,0.0086875,-0.0722974,0.191565,0.0266601,-0.0673394,0.0603385,-0.0958456,-0.1837534,-0.174341,-0.0904316,0.1490428,-0.1907409,0.1402158,0.0236379,0.2255616,0.1083145,0.050905,0.0447004,-0.1630069,0.056599,0.2723048,-0.1187788,-0.1099793,-0.1468646,-0.0326511,0.0372497,0.1231354,-0.2757031,-0.2066435,0.0113156,0.0298037,0.0315721,0.097751,-0.0960183,0.0320311,0.0365791,0.1922874,0.1690121,-0.2151457,-0.0162313,-0.0828248,-0.2013823,0.2118092,-0.064668,0.2200628,0.0891891,-0.1313403,0.2096473,-0.0592429,-0.0577961,0.0654417,0.0668823,0.195059,0.0682015,-0.111538,0.0716727,0.0692975,-0.0213936,0.2912716,0.1649195,0.092194,0.1360843,0.1864084,-0.0448662,-0.0196803,-0.1538022,-0.3035984]},{"activation":"tanh","rows":96,"cols":48,"weight_scale":0.0028036971,"weights_q8_base64":"LiItGeMvHPS16BlIy0oo2MkUMSnV69QHLS7bxkXGDikIFyIcJ9zg6/0z+9gyODwaRAgH6PA9NubPJUM20dPlzcQg7hDE3tjlCBA0HEzq5eQxBefk6uo/2AsJvVDjDiIB+Qz+7UUu+QnF2srXNxH2Fin0EOG76hf2FBwn1TwaJxUQ5CYr1Rkq5dUuQfoy2cvSQMrNzjMVFQoW3tUR5QPz2d/mqSkfzL8IUObV97cg3CMmIBsdxroB7LztDAQB7DYh/Nkl5trEy0HmDen9Yegp+gTM9/Py5DdU9/8zJfHaGPgrAuYhShXAyszeBwPtNvL9wzEh9uDpGMDSFwwQyy1D1N31Ci0axRkVFlHc9iMF2rv15wsQ/idA4QsjBz7wLh4h+eZF+P/z9wg3Bd7kMscaK/rp8/smH/E2wUEKQtHPvcjD0wb78BHh8ffluc0oBMr8AOIXGAId1t/YyfMb8rPR3Ob9CQTExtj+wcrn8iAeMbIUVPv0xqwO0wDE3BkPLjE0BiThEuHnz/8dEfXf2L3e4LUi4gfrwwUr+fL28CkQKuAxIjnTCgnV/tU+KzPpJ0nV/ftGBsompSYHW/UaKQzEJffO3ubxFcQj6ubM1jcHKx/mjCnzFiXg9d4J/0TuGgQgNMnc6uoUAuTqDNAtQe4DKiEcuu6/FtFO1OAzLO81tL4n4QBEFw4nIPIpFUVAMUI2xi85TDTW0PTfMuLlvRctCjXrAt86By0iFgDv5Sfm+SjUPtgCQOLU4twY/tLo5s/yNvMRxztFx/r5KwMiwNLlBgzTJeXuAionQ0YWKhoKSeMnrecbAz8v0AXWLgEUscz7BBbvzeDbACBZ0MkY9kMlPFLW6OfaFM4G+OIs3ika9NMzJcXbw+ze+xQaNTgi9OIrIti6QA/UPsLYwPES+tnrDRXJzSwFBc/DtfIZHgL+vQkGGxknLccGQNnVMyj4EPfiDbAXB90q+f21CEYT38gY+zbYJdowD1Th+NgHM/Q7ts7y7i4mNVLjS9nh9Rbr0g+/IS4sJi7bwQvIz8zcAQE9zT034djJxLzgLxEM0Ck86y3Iti3OBTYU7hD37AL86uvivBkfvtDgA/Le38LZXBIwIRvvJ/AWLTbEFbz5venc5TolCEn9WQUGTMsmJBXi2wGo/Pbv3LbgIhA5EUY0uuD3AAvb40QiwsBHGKsG190z+N0eIS/uQtAwwD+3HB0wDN8A7ckz6cYcPRAWLr8bLwMbTd/a4PPTBcUwNRY47CEI4wjh/Ri83MT6MQwUxkEDOvgmKxLD3v0MChLYLU07uMwj9cr/JwgR2fPLz0a63yTg8g39+uTq8ecgMt0/x//UMg/bvNUF7/C/BO5EyhAhwjbx7M3YMCovxRnNAL82wTgSxAj0RcnIxuQZ/ujQNhE4IOs6K/Du1CQ7Nw82zkAGIjkJDLwNGMUWNUIIJNQnPADK8ivYA/f4NRA92fquBSay1dHv+fz89x09FgUCQfy0PxkIFhDWET3REMHOKj4p6MYY5yIf2jcR5h89RCgE1cJFwi26KvoD2T8vCedJ/PsIz8oL0sfMGFfT4+XFx/TY0ynTH/43Hi7IxgPeL+XK6BPa/iKn1z7YISQJETg4G8DGDvwDAfUszO0h5ET8Rw7J874wx+wBRtksMMXfBecRyuTzLBz01BW/2vrH8CIgJMDj+8vM8QgoyxgxzgnK/iouNgQx8iw52xU1FNQsLusex947MAA64RTwPBX02R/Z6NG+PUoIACM63TrwzAr3+M/4IeDXQD/mHMroFAbmCu2+1erw9jnOAt+1Es3w8jQ+DwG8EvjB97ZCyurc8/++8B1FGr8H7PkRRtoC6DIJ7eguxjQCJCDk8fr2NTLay/Xp7Cv6HgYm1ck0zv4AGkXDFvTTI0QVxQMy2OYb9fQ5+/G+8DlHDurK77pMKM0F8jZCFisf/9XGze8FRcwCEBY2pxfXV//h3EPu9gIvAbdFySQKABfPMPXy4EXowegj/bcP5UQqPda7Kkk0/fjX9wj49SvJAy7F+BwN7iz4IMQLzMIDyTbz8goKJMkhNTURGUfvC9lFLkcaF8ZEItsw3RMwKQ4GyjvMzwXw7UL62gMTKPb4HwG4Jyc7PxAp6Ab40Nq9HRvfw9gmx7nj7cQZ+d9OKvT/8uH65wIdScYFERYlFy/sP9Uf3e7hvAgNtef+7tUlv8AZK0S54t/iEbsiIcvN8iQw2MYRPC29XNcW/zDt3d7OT+H+Fs8nwhfY7u7e89PTFej/7v7zLrQ1AyrWw0X/HybbRUUd1/vJHsi+38blFL5E/d7u4R/YFvLlNOId2+hI094qAQ3KGvXTx/ndztwK1ykF5Mcb+zvNMgjXLvbuGdfM0SUHRsm5UBECBjATNC409ggsRAAA0MfLUuIeCyfVKBEL7wnlO/8o2Ez18wsX0ignBxjiBcBFHSL3AsoYLCPtNzYX9CxFD861xtPixLtL6zsrysIS7SX0JvTHy8vk0TrxBMJG6rvN4wi2LSTa7f5d4hUVMiAERPwcO/sh8zYJ8TPL2/Db5ecH6kYoGOvsCNw5PAo/7BctUwb2Je0yzA7O8gvz19HbBNgHw+7oJRj5zyzYMRkr/e7+PkD17wvttSsdKOMK3SHtBhG61dsK6A/m1/UwvxYeNbTu2zjn/SY+PfgXQ/7RvSIVTNcP7dX/3LO7vLkqEEPv7yb7Li5APDkfNS69zN07DDoR+b7gsCzM8hQtJBIo0dXq/sgzHQov6v0TKcwoDjQpNhcS6iYu2BxA88vz+Uk0A/877SnS4cxO/e20Pvn7FybZ5urk89/T7vogIvja4Pb8HSnC6uzOEgIk5zExvf3c38n+L94c+uetHdP6vcr1GSXrOEHQ4dow8BIN4PsE0v4aHAMlvf//G+QG6/BIuRHIUe3fMPfPFN82DCHYwfr/GB4N5NEjGfH6Huz99cwz6gLQ8+0tMMfnKOfyNhezwxLd8zgFMv/qBw4lxfHCEEXtEsnrMzUF7Ub56i4WJQXz+hrK1ST0EglBGw087x/lEOvlI9n4JvkqRMfuQBM7KyzqI+wEHBxHKhgt0iTUO/coz7UAz8nQDwIU3RQlFDIs89hAvCf87+P1+uY3GxHa6MhDEOni+RUjyg0HxPMAENgt7uxIG0EX50sjHMEuBr72wusCsRro1yUFySC6wvziBtMzMOIqMvX0+BXhHwUGNLwX1gbr/izO1PYFFzbMy9zMNfz5KBk/OzcYw/jL+fsuGiPf5O1DFRbt1eoc3jxH8rMdDyBQ1wMe5hAIPgb2C9Ic0y4FIC28CSPKKfPgNbnes+o7F0vNKQQX2AYe1+g09w0c8+71EwLmHhbFvuPBLsws4x76z9MR/0slOtTS6MNTAzUvwBMXyU7mGP3J7T7aylcs+C0F7Ccy0w3oBtHXwer1OuA7E8vGGyEXubsw6wnK9fQXIb/6RTkGI9DfKgT3AxMnPPxA0Dvd2uS609DE6/vV4uUqDtr3EUMTz9o4IjLU/iIKzvsp3ErvUPEmSv0UV9vCwcL/3MoI5PMgCxgLPi7GvMk53iUSAvnmK7Ea9MjWG9jeMRApKMsC7tsNPwTlLdbm8+DQCijHvRfR8wApB8Le/drm7iTj0+RGRyDNEwkmOlkO7+cc4ggXzRgXzNPQN1ToAjPj0/0cHwQ13t1CL8f/x98h4+kmFhDs3M7aK7EAGtYyAOnyObQbMOzbIz3bK/g8MQ37OMLG7j/DIs3rLQclysADGOzs4PQiNxcMBAy6yPXlKibxNs02wv7zFdwZzwPB0jgm4hP1xyf3DN8f9d0YSCXx5BgC7cn1SLw6QtoIQhonE9wX0yvbFNBA8O/LIArnFfbF02kHu94NwvEuBO75QC/L1DkK19zWQAfOOu4LBioLLjJI+ggN9QUYBNnv2Q4GIwrKGP+ovy7xFMw+ud36AfgHN9UPFArIBw7f3+PGztDS+AIcOSrPIdEWw/e7Q0AEFRn8zwAbyhtD77UqKe/3TBUL1A/X4tLk+dQrEUhIRL803bsir+vu3yYmAwsRJRfD0O0/4Tr9MO37Cu3m+cDp0BQP/kDy4uHE4/S+EMoY49Xg7Dog6fPg290+QA/qzv8Vxtrw0sM288MxCApKB71Ew/Dv2fUh0di38vYrLyvizMziEDASI+ID5/E29MMKDDYV+LSqDyfW+94axdrCKzYj6+/5s90xGykkvh9Z7AcjBfjyMu702QTMBShEPuf9Exw3ACvO1EdFLuL1wQ4K7SvXAkgjBDnXFS8S1Qbrri7x2g8e987n1u4KREUv50HLJFQoLwb86hjQuc45JdEe/ST0KhscAAENGOrfH9UVC+8s0OzUycsXecpOAfP43iPUDckeFhS7ITv+wc86xOMW8ggw1PUP/NqwMznyKfYzNQLVMBw/1PzeSNc0/uPE7hjJLM1JB/QnsgA+5Q/jMdggBjblyLwILRbVC7ISyOYbui0VDN0hOcYgJzEsSRc1FOM6GdXbAxMkG+7b8znNIhLZ5NMB4BoT9NPULTHAS8jiJDPcNAYtJ7QU0Cbp2cDPG7z32A764jC39M7NzQnmvPEZBg31Cy8hzwb6B8wLQgMkuhYD1+MB+NzWHSYL3ULo4+EcMPMn+tLtFvIS5BnkAipV6wUp+BvEHif77fE/NszF7roI4QoB4hMb9iHt/uD3+igq6Do9PNQDBtlCu8+8EyZf+Be+0Dn9NNrx3jjSLhghRxX75jkSQbI4I8EGAC/pHv4y0RXZBDrfy/s/+8ksCSA339nlAhcW1Djn0kIptNLQyCY43DMgS/rybSfnHsIwMfErBtLg6BHuSj3fHgb25zvu4NXV8hkf8gDj1ilGFdQy9NjU4trr/PPx7xAC3v3qC8ok9CRKxwUaNuPZDxQyxh8d8TECAd/5IRg6FsfFJcUhyDs6ygsMJCoCVQr4zkMiJPUkPTDiDtr8PLnPxTfyOwEkRMbYPBb2Ft0KN/8vGyYmPR0rw8TCArQTuc/MPMvVtB321wbf8gTuROzGMvfcv8rv0L0HEzcRud3NKiUR0OfbGAw9PAjhFAcCLCPWtyPyMSId/jYHATELJ7/OvS4aQL/02Dr0L/EdJgXvFtYDw/kwM0QX3fjwMS7sUR3e2vTgJ/I8DiHYOgkwE7Yo2hwD0iUi1RgRtvES1Bb0OO//5AjTEQEY3C36FcUI7uEZzBEX9ODU4iIXtsRHGsIXvwQEJ0AP//cn6UUsBhw2LtYo5uJG2DgHC8bpz9Uhrv7jy+6wHMgywwq9DE5LHtw98xEq4CdCDEI/JPD6AUYO2McJ5+4N4w3uDkErBjI1F+7G6APDJdAmQTnpTA4RwechHzMMBSQOGrvctfwR5yE3QFP81f3pw8f2uNfF8wE6Br3rKcX/xDm+ARDyQEYLJTk14Rog6PH8w+EeNSH2FcXsFeLO6L3jAvz4Pu0AEtE+IyPcEgj6/Mo73h8P9tLl+S+62Bjy1cIK9RXwMdkAxsMGB0b32kjczkPxNsTQAQIURQrI6y650sfQyNoYxirqB53/sgw9/MQS7hsn0PHIvST+PjkaI/LmwwnTBf/MItLM598dSwImtr0KP+Hs6CTt4ADzyhS8Nek8BMsRMfUnPCzA49L38dvQC0YGCDIDTOHgMdTZ3ccVFxHgBSYE5hNE1TgrMiwG6sfoBgtNMuH08TMvEx7dJu0XuCLyFNka6QPWgRHo1DI1IuTqBPHo4ENNAzspKw4GKss8EQwuLijX3vjkF90dCgcH8SDsywn74s7M6hEcFhT0LbhiJ+pFHgm+09S9PSJNN7oqyxM19fz3yN34Lh4e9DLAL+MXvOL3PSTINdkh2gwAPekVHuvXMuMa/cTY2iEZCywL1cHU3/AoSxJExmDnJCst3DXD/CUe7uIGJrxf5DfNDSyq/Pqo5NsKMvTgFcQmz9009eLpLkUC4fPX6kUb20wj2ebbByrtGBjhCN1K7CjmRQoLOza2zfhNLib0v0USDrofrQFRBxglJUT7LPrnzyvw9SDH18DG7wfx2hMI9OE++TY25N4p1w3l18M41+LaGskkyxX7xdBNzkf61snPBezg7wkABxYg1fz8CvAwJyUSGRoP6NK9DwYT1cUs8NDZ9CnVvc8e4RDx8gge9iAx1NPWRCs0AwATKkQd7z8aRRHwxjw/3zLWPBkW","bias":[-0.1644265,0.0808787,0.2025259,-0.046135,0.2334051,-0.0193449,-0.1320732,0.1039538,-0.1057353,0.1796207,-0.0573657,-0.090907,0.0861566,0.1548488,-0.1941096,-0.0517654,0.1492159,0.135592,-0.1183937,0.2110362,0.0917292,-0.1550947,-0.0664984,-0.0123452,-0.1587782,0.210499,-0.0840985,0.0163602,0.0212912,0.1116761,-0.116906,-0.1133037,-0.1394135,-0.0733055,0.0966565,-0.1713664,0.093212,0.1149687,-0.1911167,0.1815453,0.0435182,0.0301605,0.1937366,-0.1367011,0.0959458,0.1274289,-0.1388195,0.0803299]},{"activation":"linear","rows":48,"cols":3,"weight_scale":0.0023541714,"weights_q8_base64":"fDGstSDFf3EEMJ/psiNi3J4HJcQzgzBk7dvBQz/iqkbTISpKmszcbh5EJtieTyW1wS3saUuxLrydHkDy8ZWqTtEfRkRAjcUSiU3DcQBCV1jbaidB5ZseQ6WwXirg0KrIbqInM/4yXUcg2FOtIa1OIqlDOsD9I0VVrQ5kn+z28nAGoRrlZeZCKDvXxr0Lf95Q","bias":[0.2326835,-0.0043943,0.1053834]}],"output_labels":["openness","width","roundness"],"blend_with_signal_model":0.68,"quantization":"symmetric_int8_weights"}
