{"name":"CHK-Personal-LipMotion-v3","version":3,"input_size":38,"training":{"videos_seen":29,"videos_used":21,"videos_rejected":8,"samples":6950,"source_duration_seconds":598.204,"labeled_duration_seconds":278.0,"source_files_embedded":false,"hidden_layers":[96,48],"validation_videos":5,"validation_mae":[0.145131,0.065674,0.075517],"validation_r2":[0.050167,0.492132,0.490888],"validation_visual_mae":[0.307928,0.202111,0.304229],"validation_visual_r2":[-0.110303,-0.089077,-0.593552],"seed":20260711,"teacher_model":"CHK-Personal-LipMotion-v2","visual_target_weight":[0.45,0.3,0.3]},"feature_context_offsets":[-5,-2,0,2,5],"audio_features":["rms","zero_crossing","transient","low_band","mid_band","high_band"],"input_mean":[0.0981516,0.0471881,0.0061372,0.7908531,0.1280721,0.0735933,0.0975836,0.0475591,0.0061487,0.7936979,0.1288401,0.0734344,0.0967598,0.0480177,0.0061823,0.7945224,0.1290458,0.0739871,0.096907,0.0483455,0.0061838,0.7939931,0.1290966,0.0746096,0.0974895,0.0490304,0.0062119,0.7919412,0.1281777,0.0755656,-8.1e-05,0.0002697,1.24e-05,0.000242,0.0002062,-1.65e-05,1.7637508,0.105381],"input_scale":[0.131671,0.062685,0.009736,0.2939669,0.2162274,0.1887223,0.1310398,0.0623989,0.0096996,0.2901124,0.2167762,0.1875435,0.1298733,0.0628479,0.0099184,0.2894244,0.2170345,0.1894446,0.1300206,0.0639288,0.0099075,0.2896554,0.2170168,0.1902613,0.1313779,0.0659241,0.0099743,0.2926174,0.2165131,0.1924907,0.0596601,0.0377241,0.0045928,0.1708826,0.1235829,0.1176168,1.1158838,0.1378304],"layers":[{"activation":"tanh","rows":38,"cols":96,"weight_scale":0.0028422182,"weights_q8_base64":"PDZB7c0L6ugf37XqFd85Hr4TJzfw0dc5KPMJMif8MS8wwiXJyknTv+fiJiZVDuQWNL1T20DGROACG/UC7w8AIBLcxiAtGvn/BzYVQv0ZJ7k/6/ILyMVGxzQd5+8cMAbOM6fnDyscw94W1worFOlJurf0BQ1HLkAX5dgSNjBFBhEN7jC9DO3wJ/ggyfXfzxUQBuQEwj3+xQ0O9An5ENn82w8eCQUT690ZBwMj4BTi5EowBCsaxRUEJaAzCjn3CcYC6+Xu4R7f9Lgo+fX1yd4py/oiIMchtj7w8hG96de4I/v6BwjX4SP8q8FUKAAp4i4uJEwvytszAwTz1u7CXzI2HLi42MvyGzHoziYGzevwkNe2HQjcF9jONw7HEgfouNO6PtXc8CfJLDMx+tsaL8FCOqTPINU/AckEvh/tPzskBbTeJjlY/ibWzRwB1xTqGg0y9AtcJ/zfMLT+/v5GISEv38b9+BLDA9nNs0PbEh0BCCDEBEAKCb3/AwtAzyAHLhDByDzX1fgk4dgdzxs6AhQ+GtcBFP/5DNMDzf0LDxXtEPcoCdT1xDsF0OrVGhu7Nsc3+wPtKDkHE0Q40BrgCD4ZMfgsGOXSQwby8BnG6swyKQi/M9XMuisBsgcyNBjc/Qob4OLz7vPQIBfE7ynjAfIZ6ePkEe0yRCew9/A44xfw5x82A8bz9uswMsAlDCXLFA7y/iUCHtTSNtzYzuorFN3s3+qx8BsTQifrydsC2+e9Gzr46yIgzhv7xADV2t8x5BsB2rcNKgHrvvGc1cMNxCXhDCLn1NkI4KwTF/gRvfHW1gzuGfn8KuizTv4IQOo55SbpP0RL5P3/+uOzBfvANS0K6w8TxTvnHfjrLOPdNtU82sIXFybDCCP+Ecg68Qfu3dEN9PbJRxPvHQu2veDu5jTnl9LTKf3qKgEEOAgtzgzVMu0UFccABfzUCAwE+QEJGtkZ1iUDLi03OQQX6BvSSTU1CkQGLzE4Ig5BOcTA0C6z9NbLAuEa4r3MEgoZ4MtSxyq8V8Y+4BbFH00tubbL0+v3GCIqt0DI8eXl6P82G979xWgSwhYh8CUTwOW8ziHsF+c15WAkRPzF/tLz5Bi53+kTNxjnPTUk1PwgAdsrJ+bUqBogRBP9NOg2NtI/FCpd6Mw0Buvd+y/Szg76UOnb9kHYKBccvuk+uNQDCgQmxvUeTdv+2BNBINcqAx++A+EkQQ365uIvMdFIDbUJ7TYRz9kh+EAlOfXJojTHxAlCygriEEXR97pBRzkDANsV6jHSxuonAi7zsBsPNeQZKPm+7Rce6QIRUwLsJdfANiL0yeIgFgkCIxPK+h7sGv3I++PwEcjAAycLYwXy4fQP5/rlLOdAQwXb09r91/gOyfwC60no6TO448gA3UMRANRcxtW8zDDeBCX8Ct0fCgvdM7PdDAgsxPYwD+8z3drN3zwRqPPl6SMh3tTsIRLA6RvY+Rzr6fTw/f4K0hnE1/q94yM8Kx4fCeM5GNrEJuHezxT0/R/tFSEO7TMVMC3x1e3I1h/vDQo7KbsMDBIyK+Pxrj4Y4StFHrvlGtcB+ggczhzBQQTntKzs6SME3xbWCQ3lAwm778n1MPY/K9H63eKmO9T2zhcBtDDa7g8MuQ4fwwn93hIHC8RM/+BDB8AiJO40/iY6GfNPSuLe1pwVv/PkxgfrvcPassYOyA3Z2e/PHjfoD9y50+XhxAbRW6svIQkkODZUxxoHzUfuRtwE1xPwFwM47z/wGCrcAVHSE/E7FMpAIegK3cIg6xsSwB0iDQ796efGrBEY/Q3WHPM3rjTOO6joQBn8zsEGvDogGqAB1LYCIc8WxyoMougc3uzyOt3sysHh7BLN9zvZzutF5QMt/rbHQ8wA5CYeE80u5sHN6SgUOjZB6NXo7zbBNPcLBe0oEf840xn+70AB1fv5TdkWCMsfAPDD38G5Af3dw+IKGcX6uizcq+HTLOciy9cO3Q9MExe52T7HA98Q6Qq3LgDe2AMYNfq6598aACQKLQ8T0BnTHO/8ETXIIzcVMdH//xESzu4tKi3rCCfbuDb+3A9K3CAMHvv5vET7/zAkIu8ZOc0ZwD8c0UQwOswpFAAxxS7y5U62ItsnEuQ4By9aOEMU4PT1wNRA0kHntOP87CjiJh31FR3tvjYL8NY6RvkI5BkE0eU9MzD9CQxAxwj0E9EZCejp5ug3Q97DESkp1PuptSDD+ToLOgMuwwTXB+1A2egT/wfTML/S9x9HFjby9yvE7fYI+UoQ3c4EDwZB8dXU1xbk6jsW1N7S5SzWMfbtRhbxz+DQSiUxFe/PBh8rLyHH387c8w/b+By+Bf8L8zQGsekWNSsnSjI2CCQiyzThGfbIACET+OAJSLExM/4R8Pznq1kCR8AjB7j9Qtz/vtPED+HOyezhOjb83QHwLdQP8Bvg5Pre4tHHJPUvNQwFxCs7Oc/V6zE6/QbaF+3EHSAX+T8pCeRWLg0P0T/8ASIevxI3AwTgLysCPQkV78MIIMTGNDoC7AjTpA4d/R0rxUbNE1AE0j/kMP/iDPPk+jTaBfI36QYF0Qzr4NUM8vIcJc4uPvgO9QXy2+Ws49VW0I8n0LIFHP8TH/YD2eAGSOInDvXi1N/J2sH5PA4wsO3T87zY9/SyDAJN8Dj7FIEHTxZMq+DO4Dhg4x0x4Nn2/OTbUQ8IBfr9Ei0nweDC+Mr9/CDXLtMmGDrxD7Lz+d3n3sojQMnc19ztLyP77jDU+LjK4PLON+v96Py3PecS2fnaDuJENuvmCNYq0esVshwCAB9Fv/sQ6srhwNwXKyzh+9zfyO8rxAu48R3s2eTm9LrSJcwzAyi2Guo7A0rfv+gn1uLTHiAHFeQHGw4IIi302Ag20s3eJcIuwzbbzQb7Id84JQDXLdEeNQUt5RkQ4Sr0NT07BfjiEeptCCIX7hcY1isqzwbpwB0/1RcByJ3j3BfzD+c05x8d8/EMG/YEAs4SzxHnAfQv/grOJtQI8xwT/hIS7RTZINkGAPzj99bv3enRMdYjGPjIAfowAQor/hrLIw08I+/eDPXzCz8YH+wu4vIs2fk81Dq8EAcE5jcKMUwB5OdMIgKnEuv8udcv+iDtQwTu6sQAwMc1Sjwm0RDo///rL73ePwM/+DEQHLs99fM2CwUi0BHh1CjZ//rX4yHkGWSzEPVKzPTe0O7PIhToCwpZEDczJhXmEjIsTQg1xPIntxUFUhU2E+Ut1c48Jt2/G/Ra5/YCy2P29tItAyksCsz6/vcR9QTJzf0FC//mKrGxLdH9Lg3JyTDfrDJG2AEbx+8CDN0hEtAOEwoBEur9OezATAfaLzgDId87MdrE+83Q6/jISBb1/7VeM0YbMS5syAhJKej6Jt//09zb4tPA/rk71yUq1NnnSuOwLQqsNLaz7jUgC/mu9w4DtQy+N+O/HTAuqdW9+SdR3zEwHhoqTP/+R9Dj3gvQ+Tfr3PTFCw1MF+oKtjfe3OW4D8svMwe+CSPyIek/KNwz5CkZ8hTtLB/pHubYHBf5GC4NICXzG9nkQx2mGSVHzzY9Sck7zf3d+Scf++T/HBol4tkbzvnVBL8mFdu4IyA8387QDdUSKjAf2Mop3g42+yw1ydLIMMEOxPHgKdMgwd28BBzQ5BwN2S4W8hLPEvERFjvbOxUC7b3uBxIrJgIIMAwbA/DcAdkSG/XCyOH8FAHzNc+9NLsXNvbh5jtID/zEGATV3d0SUBmtDePyzRPw387wKrjSMAAVzCgXyOg4PtDNPCs4w+McABrCHtYeA+klOscZID3t1Oc0yDPXI+4d3wAyEc84EvIcGB3O6w3/Ti8gJNnfucH6+xLV5s7Z9jHn90Tl3h8h/snQ+hcFUue5/Rvf9zLV+DIkI+T2DSMJLRcuCvZBPyvBBBMHHtAJ6jUEB/8O6gDLz+E2MSrQEfoQMDng2QXBB9sxAggh5fUBFBkcN8gU8hHWGgkdIDc38vcmLjQH+Ov5JfMJ8BwgEvTVCNTF6QD8Bxwp/774JdglHwfj0ApFINrIzeYWMw/a2NfWEi4v6ejk/u0G3cktCBwMNci8L9fA06jOEvTr1fPPMDblINP/wOQkHOwnEcrRMvroMOL1ZAIGHB4eItKb1iIHCAwoOwn6/OA088Mv3S7l1hskNcfMLvzuE8kcDuAZEQcoNhvnBgEVwvMc1g881Bc4/ywR/TQYHg/b9vAJ0z/jKMKy+uYqzMPoEwjb8KkvJ9AL+84SI9UGBgHBE+L20jMvPdUzRNHNAN/W8iYM/uwyuOPY3BIs5B0hLBs09b0C7M4Wugf4LAwWISbk7ijN/CUvGDDtDC1X1dcvGNbQFSC9JCMD9RziBP019jEsAhT75Cn0FwM4E/0aBjroG//WIQXd/fkIzwUMMP2/EycKD/8fFx7u5Lr5AAHpHNXBywk0xO0+ZRwnQAYIywQN9eL34SQ57RrwOTgfLe8EKyXwQdnN6jMZ3D4cHfrnsSkr4TkHCyIGDvjf9cLROdUCEAwc8ubw58PS+w//FBbUBx39o+DR8+EeEUD1tN3KAxT1Ggc8ySIKAMvmFQtJ4NPvH/P86cX6PAsgOtcP3cw3KBk2D9A23yXiQxQmCQ/HJAEoIg/K80TuJby5EOPg0ACm5KjANt7XVSYW2+QvQD7yzAhNDgZEHPYqtUQiu8wPAzXf38DSudP7xNw7wj0O3+Tl/eUKzL4k4e8SGC4s59Dt8zz3NPvyEspj99AYNfLKxN4d50AXxr0hMgzaONhjwBi+OR+3R8vU0hEL50wLJvAAmdgH3LsL4gu/Dez8+9MZ6v8xESG9APTaGPQq7PvrxPkOSC3n+e+zFNr519z25aXW/OwUEfPODdoKIiMDANjN/RnXzAUwEQjyzOQl","bias":[-0.0247042,0.0605094,0.0730165,-0.0961128,0.1758934,0.1001156,0.1298375,0.1439085,0.1108514,-0.1987779,0.1988988,0.0215494,0.2211111,0.0899186,-0.0029689,-0.0404425,0.1467831,-0.2468427,0.2504019,-0.1723291,-0.0461617,-0.0177585,0.0025868,-0.2207094,0.2439231,-0.1242964,-0.0044978,0.038802,-0.2074029,-0.0022527,-0.0365925,0.1501394,0.023106,0.028109,0.0604353,-0.0956624,-0.1788946,-0.1706209,-0.0652539,0.1683203,-0.141797,0.1627593,0.0537096,0.2540855,0.1117625,0.0648414,0.0567501,-0.1610684,-0.0053546,0.2096729,-0.1807208,-0.0696429,-0.0959034,-0.005297,0.0364936,0.1833649,-0.2447044,-0.1634972,0.0363629,0.1628152,0.0044885,0.1135609,-0.149668,0.0533545,0.0066862,0.2187463,0.1420942,-0.1619058,-0.0119686,-0.079217,-0.2367695,0.2103935,0.0214703,0.2291446,0.0972233,-0.1265051,0.1942122,-0.1220353,0.0402582,0.0956727,0.0284822,0.1523077,0.0287181,-0.0629932,0.0096454,0.1463169,-0.0408201,0.1957223,0.1695621,0.0562247,0.1365877,0.1623629,-0.0817044,0.0263748,-0.1470925,-0.295607]},{"activation":"tanh","rows":96,"cols":48,"weight_scale":0.0027829474,"weights_q8_base64":"LSMtGeUvG/S05xtGzUsn18oSMSjV6dUHLi3ax0XFDSgGFiEcJtvf6/4z+dkxNT0aRAgH6PA9NujOJEM31NHlzMUg7RDD3tfmBxA0G0zp5uUwBOfl6ek/2AsJvU/jDSIB+Az87EUw9wfF2cvVOBH3FinzEuC66hj0FBwm0z8cJhUP5SUr0xoq49QtQPsy18vRQsnQzDUUGAsT39cT5APw2d7npioezsEGTunX+LMe3iIoIx4ax7wC7r7tDAEC7jMj/dom6NjFykHnDej8YOcr+wTM+PLy5TZS9/4zJPPbF/krBOUiSRbAxsrgCAPsN/P9wzEi9ODnGcPSFw0Qzy5C1Nv1Cy8awxkVFU7b9iEF2rn14Q0P/yU/4wwkBTzvLR0h+OdE9v7z+Ak5Bd7kMcQcK/ro8vsmIPA1wUALQNHNvMrB0wX+7hDf7/fmvc4nBcz6/uMWFgMe1uDZx/YZ8rLR2uf8CQLFxtf/wsrn8h8eMbQUU/r1xKoM0f/E2RoNLTIyBiPiEuPmzgAcE/Th2r7b4LYi4wfqwwQr+PL28CsRKd8xIDjTCQrW/9Y+KDLpJkfW/flGCskopyQHW/UZJg7EJfjN3eXyFsQi6ebO1jgKLCHnjCjyFyXj9twI/0PwGQEhNMrc6eoVAeXqDM8uRO4DKSMcuu+/F89P098zK/A1tb0n4AFFFw0nH/IrFUY/MEM3xy07TDbV0vTdMuHmvhkrCjXsAeA4CTAiFQHv5Sfk+yfUQNoAQuTW5NwX/tDp587zNvIPxzpGx/v5KgQhwNHkBg7SJOXvAigoQ0MVJxwKSOUmrugdAj4vzgTXMAATssz6BBbvyt3aACFY0MsZ+EInPlHX5+nbE84G+OEs3SkZ9dUzJ8bcwuzd+xQaOTUh9+IpItq5QhDUOsLZv/ER/NnsDRfIziwGA87Dt/AYHQP+uwgEGxgoK8UGP9nWNCn3EPjhDLIWBtwr+f62B0kS3sYZ+jTXJtowD1Lh99YGMfc7tdLx8i0qNFLiS9nh+Rfp0xC+IS4sJi7cwQvHzsve/wQ9zD034dfHxL3eLxEM0Sw96y/ItS3MBjYV7hD27QL76erjvBkgwNDfAfLg3sDaWRMvIBvwKfAWLjfHFr/6vune5TwlCUj8WgYHTcklJBTj2gCq+/Xw3LfgIg84EkU0ueH2AQvZ4kMixMBHFqsG1d0z+dsdIy/uQs4zv0C5HRwxDN//7Mkz68YcPBAXL74bLQQbTN/a3/PTBMQyNhc47iEI4gnh/Ri73cT5MgwVxkEFO/YnLBLE4P4MChHYMEw7tM4j9soAJwkP2fTK0Ea74CTg8g3+/eXq8uchM9w/ygDVMw3dvNUG7/C+Au9DyhAiwjbw7M7ZMCswxhnM/8E3wTYQxgj1RMrIxuMZ/ujRNhA4Ieo6LfDx1CQ7Nw02zj0HIDkIDL4NGMUVOEIIItgoOwDI9irZA/f4NhI+2fquBCW01NDv+P789h48FgYDQP2zPxgJFhLWET3RD8HPKz0p58QW5iQd2jcS5B09RSkG1sNEwyy5KfoC2D8wBudK+/wH08kM0sjLG1fV4uTGx/PX0ivTH/82HS3JxAHcLuTK5hTY/SSk2D3bICQHETg1Hr7KDP4CAfIuyu4f5kf7QxTL9L0wyusDStoqM8fgCOcPyeH0Kxv50hi91/vK7yIiI8Lg+8jN8QsnyRY0ywfLASksNAUx8C822xM3EdMoKuwfx+A5MQM34hTxPhPy2x3Y68+/OEwIAiI83D3uzAv199D6I+DYQT7oHsvoFgblDOy+2Ojx+TfPAOC2Es3x8TU/DwK7EffB9bdBy+rc9P+/7h9FGr8H7fsSRtkB6DMJ7ekwxTUBISHk8P32NjLZzPfq7i35HgUn1cg2zv8BGkPDFfLTIkMUxQYz1uYd9PI4+/LA8TlHD+jK7bxMKc0H8jZDFS4dA9LIzPIDSMsDEhQ1phXVVgDh3Ebu8wEvALdGxyQL/hnPLfbw4ETnw+ck/bYQ5kIpPtW7K0k1/PfW+An59SrGBC/F+B0N7i34IcUKy8IDxzf09AkJJcoiNjUSGEbwDNhELUccGMZFIdsx3hIxKQ4FyTvN0AXw7kL62AMSJ/X5HQK4KCY6PxAp6Ab4z9q9HRvgwtgox7jj78Ma+t9NKPYA8uH76AMeScYFEhUmFy/rP9Ue3O3iugoNsuj969clv8IZL0O44N/hErojIMnO8SUv18YPPC68W9UZ/C/t3eDPTuT9E9AmwRbX7e3e99PRFOkB7P70LbU2AirWxEX+HijbRUYd1/3JIsi+38jlFLxC/t3v4yHYFvTlMuId3OhG094rAQ3KGvfSxPrbzt4K1yoG5cQa/TrNLgnWLvXtG9fM0CQGRci5UBEDBjASMi819wgtRQAC0MbMU+MeCyfWJxIK7wrlOwEn2kv38gwX0ikmCRnhCMBFHiL2A8oZLCLsNzcX9S5ED8+0xtPhw7tJ6jksy8MT7CP1JPXFy8vj0jnvAsJH6LrN4wq2KiXa7f9e4hcSMSAERfscPPsi9DUJ8TLL2u/a5uUI6EcoGenrCNw7Ogs+6xcsVAf1JO0yzQ/O8g7z19HbA9gHxO7pJRj5zy3ZMhgs/e/+PD/17grutCodKOEJ3CLtBhK609wL5hDl1/UwwBQdNbft2zfo/SY/PfgYQf3PvSEUStUQ69P+2rS+u7soD0Tt7yr7LC5BOjohMzC80to+DDsR/b7grirN8xQqIxEo0tXn+sc1Ggkv6v0SJs4pDDYoNRgT5yUu1x1A9Mrz+kk2A/887inR4sxP/O6zPvf7GSbZ5unl8t7S7fohIvjZ4fb6HirC6erNEQIj5jIyv/zc38n+Md0c+uesHNT5vcr2GSfrOEHQ39sv8BIM3/0E0f8aGwUkvQABG+QG6fFJuBHGUO7dMfbOFd00DB/Yv/sAFyAN4tAiGfH5Hev+98oz6QLP8+0uL8fnJ+jyNhi0xhHa8zkFNP7qBg4lxfHDEEXsEcjqMjUF7Eb36jAWJAby+BvL1CX1EAlBGQ088B/oD+rjJNr4JfooRcnvPxc8LCvpIewEHxpHKhoq0ibTPfcozrMBz8fREgIU4RIkFS8u89pAvCT98OP0/Ok2GhHZ6shEEOfk+hcfzRAJxvT+Dtcv7upJGkMU5EskFsEvBcD0w+kDsR7m1SMGxR+8xvrhBNIyLeImM/P49BHdGwYJN8AS1gro/izO1PUFFzfMy93MN/z6KRg/PDcZw/jL+PstGyTf4u5EFhbt1ewc3j5H87QdECBR2AMg5hIGPQXyDNEg0zIFICu+CiXJLPTfM73et+k7HEjPKQcW2Qcg2uUx8wwg8uz3EgPlHhbFueTCLc0s5Bv6ztIQ/0skONPU6sRSATUtwBYVx07oF/vI7D7ZzFgs9y8E7Ccz0g3oBNLWwOz3O+E7Es3GGyIXubsv6gnL9fQXIL77RjoFJdHdKwP4AxMnOvxBzzrd2eG51M3D6/zV4+YuD9z4FUMU0Nk3ITPUACINzv0r3EruTvImSvwTVdrCwcP/28kI5vIhChkMPSzFu8o53CURAvjlLLEb88jVHNrfMhAqKMsC79sPQAPlKtXn8eDQCybIvhnQ8wIpBsLe/Nrj7iTk0uRGSCLOEgooO1gN7+cd4goWzhgZztPPOFPqATDl0v4dHAY03d5BMMkByOAf4eonFRHr3M7aKrIBGdQxAOfyOrMbL+vbJT/aK/Y8MQ38OMTH7kDDJM3qLQcmzr0EGOrs4fQkOBcLAg64x/TmLCfxM8s1wf71FdwYywTBzzgm4hH1xyX3EN0f9tsZRibx5RcC7cj1Sbw5QNwJQhwpFd0Z0yzaFtFB8O7KHwjnFfbH02UHvN8OwvAuBOz5PzDM1TYK19jWQQnNOu8MCCsNLjBJ+wgL+AcaBNnu1hAGIgnLGQKovC7vEss7ud76BfgIONUPFArGBg/e3+PGz8/Q+gAaNyvQHs0Yw/a7QkADFBf9zv8bzBtE77QrKu73SRYO1BDW4dHj+tUrEkdIRb813Lwjr+vt4CcmAgoRJxjC0O5A4Tr8MOn8CO7q+cDp0RIQ/j/y4+HE4vPAEcoX4dbh6j4f6PHi29w9Pw/qzwAUxtvv0cM39MMxCQpGB71FxPLv2vci0Ni38vgqMCnhzszhEC8TIuUA5/I39cIKCzQV97SpDyjW+tsbx9rBKjcj7O36st0xGykkvh5a6wgjA/nyMvDz2wTMBSlEPeb+Eho3/y3N0klELeL3ww4J6y3VAUYjAj3VEy8S0wTosSzx2BAd987l0+0LREQv5UHMJ1QoLwj57BbSus04J84a/iH4KB0bAf4OGendItcUCPYt1OzUzcgaes1JA/j84iPRCMUiFRO/IDr+wM86wuMV8wcv1PQR+9ywMznzK/c1NATUMRw+1vvfSdg1/+XD7hrJKs1KB/Ulsv4+5RDlMdYhBjXkybwILhjUC7ARxuYbvCoVDNwjOMUfJDEsShg1FOM6GtTaAxMkHPDc9DvNIxLZ5dED4hoT9NXVLjHAS8fiIzLcNAYuJrQVzybo2MDOG7z52A764y+28s/LzArnvfIaBA70DC0izgj4CMoMQQMlvBMD1+QB+NzWGSUM3EDm4eIfL/Ql+NPqFvMT4hjlACtV6gcq+RrEHij67vBANszF7rwH4QoC4RQa9SDt/N/1+Sgr5jo8PNYCBdhCvMy7Eydg9xi+0jn+Ndnw3zjSLxchRRT64zwTQLM4JcAH/zDpHv4yzxXYAzvfyvpA+sksCCE439jlBRYU0jvm1EIptdHSxyc53DMfS/jzbCfnHsMuMfMsA9Lg5xLtSjvfHwX25jvt39bW7hwe8vzj0ydFFtYz8dvU49vs+/Tw9BEA4P/rDskg8iRKxwUeNOLYEBYzxx8a8jICAeD3IRk5FcXFJcUfyDk7ygsNJCgDUwr4zkMhJPUnOy/hC9r7PbjPxjfxPAAkRMTZPBj1FtwKNwAuGicmPh0rxMXDArIUus/LPszWthz12AXg8wPwQ+vFMPjev8vvzr8GFTgRt97MKyQT0OTbFww9OwrhEwgCLyLWtiTxMCQe/TYGADILKL/OvjIbQr702Tj1LfIbJgnvGNYBxPguNEUY3vjwMy3tUB3d2vXgJ/I9DiHYOQgvE7co2hoE1CQk1RgRtfET1BbzOe8A4wnTEf8X3C/7FMUJ6uEYzREW9ODV4yEWt8RGG8IXwAMEKEEQ/fYm7EQuBh04MNUq5OBJ2zcFC8fpzdYgrv3kye2xGsg0wwq9D1BJHtw99BIr4CdDDEA/Iu/6AEQN18YJ5u0O5RDtEEErBzM1GO3G6APDJM8lQTrpTA8SwucjHjYLBSMMGrvdtP4P5yM4QFX81/zowsj3uNbE9P47Br7pKMYAxDm8AQ/zQUYMJDo04Rwh6vL/weIcNCH4FMbrFeDQ6bviA/r5P+0BEdQ+JCLdEQb6+sk72yEO9tHl+TC51hnz0MIK9BbvM9kAxcQGCEf32Efcz0HwNcTQAQITRAnI6iy40MfRxtoWxCrqB58AsQw9+cUV7h0o0fHHvCP/PzsaIfDoxAnSBv/LINPL5t0fSgEltr0LQeHr6STt3wPzyRW6Neo7BMwPM/QnPC/A49H48NnQDEIGBzICTODfLdLa28MVFhLjAyoC5BJC0zcqMCsE6sjmBgxNNuL08DYvECDdJOwYuSHyE9gZ5wPUgRDq0jE0IePpCPDo4kVKAzoqLQ4HKsw6EQ0uLinY3vPlF90dCQkF8R/rzAr74c3L7RMbFxT2LrdhJulGHgm/09S9PyFPOboryRI1+Pv1x9z4MB8e9TO+L+IYvOP4PCTJNdkf3A0BPugWG+nYMOEc/cbY2SMaDCsN1MHS4O8oShVFx2DnJCkt3zbC/CYe7eEFJrpg4TfMDC2s+fun5NkJMvPfFsImz9009eHqLEUE4fbX6kUd2k0j2ObcCCvtGRriCd5K7SrkRQoLPDa2zvlNLyb0wEMSErkhrgFQBhknJ0P9LPzo0irw8iDH1cLH8Azy3hQI9OBB9zU35toq2gzl1sI42eTbG8gjyxX7xNFPzUr61MfPBevf7ggABxYg1vz8CfEvKCUUGRkP5tC+DgYS1scs8NDZ8yjVvM4d4BHx8gcf9SIx1NPVRSs0A/8TK0Qd7kAZRhLyxzs+3jDYPRgY","bias":[-0.1637056,0.0803699,0.2002797,-0.0415993,0.2239075,-0.0161056,-0.1294257,0.097404,-0.1033326,0.1785689,-0.0588963,-0.0959947,0.0902895,0.153266,-0.1873481,-0.0475035,0.1497342,0.1353141,-0.1103886,0.2070439,0.096382,-0.1539199,-0.0704742,-0.0155314,-0.1573864,0.2049625,-0.0855597,0.0135648,0.0270939,0.1189786,-0.1172067,-0.1118841,-0.1391371,-0.0739389,0.096015,-0.1694895,0.0911595,0.1127442,-0.1897435,0.1742506,0.0359081,0.0325277,0.1849138,-0.1356044,0.0938181,0.1277561,-0.1358046,0.0754373]},{"activation":"linear","rows":48,"cols":3,"weight_scale":0.0022880916,"weights_q8_base64":"fTSntiLHf3QAMJ/pryNj2poIJcI1gTFn8NvDRD/fqkfUHyxKmsvicR9EKdmfUye0wS7tbE2uL7qbHEPu8pKoT88gR0hAjcMWi1HGbQA8V1vZZyc85JgfRKKrXizd0afJcKAnM/4rXEkd2FatIalQH6VCPMD+IEVTrA5nn+r48XAEoBzpY+NBKDnUxb0Nf9xQ","bias":[0.2324121,-0.010831,0.0995177]}],"output_labels":["openness","width","roundness"],"blend_with_signal_model":0.68,"quantization":"symmetric_int8_weights"}
