{"name":"CHK-Personal-LipMotion-v2","version":2,"input_size":20,"training":{"videos_used":18,"new_videos_added":4,"samples":5541,"duration_seconds":286.43,"source_files_embedded":false,"hidden_layers":[64,32],"validation_mae":[0.14644,0.139906,0.142638],"validation_r2":[0.238238,0.014706,0.16767],"validation_videos":4},"feature_context_offsets":[-5,-2,0,2,5],"input_mean":[0.1134365,0.1107329,0.0193057,0.1140968,0.1107817,0.0194192,0.1145284,0.1109419,0.0195568,0.1148075,0.1110512,0.0196517,0.1151203,0.111408,0.0196287,0.0001984,5.31e-05,6.54e-05,2.0030591,0.2447852],"input_scale":[0.1324344,0.1433101,0.0224749,0.132787,0.1431536,0.0225462,0.1331021,0.1429921,0.0228228,0.1333218,0.142994,0.0229302,0.133836,0.1439039,0.0228217,0.0630157,0.0749084,0.0108481,1.062243,0.2755899],"layers":[{"activation":"tanh","rows":20,"cols":64,"weight_scale":0.0038916034,"weights_q8_base64":"+e7dyRwCDRfR6ifUNCTLGAkC3ATtCAw1/qvnxBfV4yUXyOLgAbwFIDjXNTAZHynIKkIjsujt/CHDSdYFHSHNwEDMOSYbYgvX9AjdDx4YAurSDhPn/AcBzPRHAxg2Lv/tJw0xHSW+9jAc5JztBjzg+PgVJMYJ6t9F3+j1GO1A8RcX5irRJBDtPAcbxfniB+/E6vMhR+sg7L4RDAUF9BIWNUxNBxjOLVoq7urF1eLk6yjjBFnh/PjEywvIFPvh4SwA8AHBIRshOgkEQTS0KvUyFDQ43NkwAT+698lD8skDHMsSQd8Nok7Z8wEPQOP5HAgSGDYx9+cUQBvZGRMJBQvnwSAHJjoDN/HrHfP55BMp+99K5tIIITDr+9oyMiIgviXw0CQO5NwJGwTGS+YDDzgRFgLwPCcpMMv8u87rJUkX4RjQBvL6IyPa2uEb7y3o4eIBLTf1wQfpJ+PeGTAB8PoYEzwX6REJ5rzl9fz6/+nYzznu6SDkFMwo9O/rG/3QUvMxYNpJ+vDMKukRCfWy7nAG0b/wzS8K88DGIyQvNfdjyDK9qMwF1ELtAwS36NChLiIfMcHRIN3f6wQmwCvaGaXz9BbUL8wHwPlFQDXo9hX+CdsGzgDo1/oPM+/Zqcm9+BMkIykg1ygXz9vwINUo0PQ3Kx7AGtuyJdcY5Q0A2PkU7skL4AIIJxAT+TT23d0XRvYTpd4Wybch5BTf7+44rtrvz+o89vAC1f0Q38Qn9hMCEkzLzQosBd3u0fy+Dt74+kH3GawlNRA8wzLy+PEh7szb9OssGK0S+Rvt9MQrPBU72r4Ou0vay3/5ADoXLxT3Dw8E/spD1PYT2te6Nuz0GvjJJA0OODTBIf0FGxnw1w3k88dLJ/8WGxTgw/gWAff3EvHmDBE7IScFHPtFE/0e5i0XCPjnBN/xCisC7vQqNAsnLijP+hrk3/q2+joHIhw1Ijs5RNf87+o8IcL89xkx+eIhxNM9KN7q0PUNHe3CCT0J6Skk/Q/gvR4D/TIpDuMpOwo0EMGsAOfJ5CUl6SEZ/eQCPcUqD7rW9uMpFs0NBxDwLx3xx8oeyz1A79ZYFuT49P8g+vYIBgO1C+e05vjJQcFaHE4jNjw9RvoeNRYDGCbDQNRL0wM4CNTz7vfvCVEvyhUE/67h9QLfLhru/eUjyye4Byzk1Qbs8zIT1ePxyTEC0v4Q+/Ac+dnIBjUdFRrGDC4IFbDeFQMtC+ju494IFfTO6N3/4Ovl9rnUuRDH/BMBBEYSA+ATtL/I2P8FDfzbRsLe3DsFLwpE0OUH1/YD9PELBAf+3B0Z8t/S1uE0vh0m/A4ZqEHYDsrz6EfwP/QZFyrW1s8F5j+3IPgi0D0A1Por+wKyNPH/A+oOJNj+TQUe4SLu8d/D3xAZFPkaFAcxE7nt99/iOu8Fu8//yiXj0Bv628gH0gcj2CL6PeoY+d//zu/SLGTm9DM+MAvz+uUn1M7h/SLu1O35BADj/e9L2Mkw+zfo3+A84fblwtwsGN7x6R0aybE69PYQHhkcEOkiE9zY7QNEDyBLMNn/Jkfa+wv4Jb2uCu/svLQdBVjltCsvNUj+/+LVzykn5OLL8/f+IDr+Jd4c9UI1TiHV/dJAEUm54DILQ/0rFSY2/g4pzfIc8OrLJNBP6uc37+YG/dwRsCzhIPHBEtn03MQavcsGAhLoFznoMum8JAMNBBkHARAdzxw=","bias":[-0.1860537,-0.1744438,-0.00406,0.1179379,0.1659707,-0.1565762,-0.081551,-0.0035034,0.2065185,0.0050131,-0.1447733,-0.0144868,-0.0918803,0.0430076,-0.2099765,0.1602357,0.1450746,0.0147994,-0.100209,0.3935577,0.3468108,0.0898695,0.2533785,0.015321,0.1108623,-0.2598866,-0.1385473,0.2062577,-0.1798069,-0.033575,-0.0407254,-0.0923686,-0.0177565,0.3023184,0.1859061,0.1497854,-0.0458927,0.1148024,0.0074744,-0.1145804,-0.0040331,0.1836888,0.0824963,-0.1989088,0.106516,-0.2825858,-0.2037964,0.2564941,0.1238642,-0.2318353,-0.2085515,-0.0954191,0.2297323,0.0251968,0.1418727,-0.0600691,-0.1682805,-0.0777985,0.0100097,-0.0034663,0.1314323,0.2221678,-0.3002601,0.2396836]},{"activation":"tanh","rows":64,"cols":32,"weight_scale":0.0030871803,"weights_q8_base64":"JuDaCABN5C5D9xg28Q09QAn32xs2pAAl6vdIovXwnOu+yPLVAV4aMy0NDBJn0zI0MPjNEQDpGijfziESy6r+IwULIdMg3LPYsjDJ2Oy4vPj35dkNIOD2BM/vMcwUXf857SgYKeEMBAkVxz0oFRQv6ObF49EjyeDB+/YoHAMNg9cZGvEF0OQa3iMMxPLSDQ0P47oXHNYoviRH0BLmKgYBINsWxqoaODRL7SIVr9nR7kzh8+LX9s9N7sjdFav00Dj1IMDmwC0IOBQv/wfNwwTt6Ce3Cw3iAgrC7RsJ7L0GcxWq1BsQDSIMECnM87LI+cA9DBvV007b6P8zIxAe39kTkwHT3e0mQUn9NiRKzCa7HOMh8QMDzbr13y+wNCy7NKLUQ8om0RgZ+h364Nju4D64Rx3hA88lBbxMNxIs6CDZMiHsHDrY+Jf/CBK7qaQ7yTv4Rk7e7kC42wUz7rwLvrv25L3NyDvvf0jG+Nk1xtXAQBMc1SMb87jE0MXIjz7iIMSxMCwp7Br3sr/HBvXXC0D9ANwPGCkEDg013i0Ryi8f9jy5TkDY+ebXuyP6ANr+7fQJMOnbOv749h0oO+kUzTL9/RryISXSQQY5tU5JHbwkLCoHSjTlITMXATAC/EIZJMI/DClIBw77CRgAxAiqrAo4Ehzk3q8kRB7xrPLg788VGBxF0NHONC5HFOPiHuY45tf3y/XEMCL+G/n8O7Tz0MGm2hg0/STyNLsv3erPBPAtOc1Q8wcYM+ZeRf0x0U23DS+cHDmX/+gws1YzE9m9FsOtLCApuAjSBPzHM94LM98aPs7jEQ01FdBIsP0q4uUIKNcu8rfx8lAuFSm4/hsMDRVs1Pb6ME0athxSsA/+8yAOHeMs5Sj4GyL+NjImNfoiSVzktTfNNeEfO8ng4dlGIPLU0tVTGuwyJPI+8e4G/dE1p88pt8+1BvHCQ9EIVf4pw9AX7PgCFsA0Bxgs+rodrBdBqBk0sB7VyhLyMw3i+AYK+sYO8PwmAxncOcH13R0sDuEltNYZCcXt8DDq5M+7EfAmySsYz8zbFjYWLDcMKsfc3DkUOehA7u4IKgD47tweFO5DxAsB//bmMfDrwQbqsmnlQgCoRQYagd8sFdXlR09FHCMpJQU4J9PLOQhJLz3f0O4RK/LqM0EAODIP9cYoAEjKQAW0Lsr6KeUk1A7gLfVXh77KvZ0JETnI+xfDCcvqydUwHc3rSMawyNcMScfpByq+6s3v6hjN7Q8tPSENwuHXCgy7IurZteDk/s3DGelNN0c67C8K7kDCGE0sqs27XsEA8kA+xcZQOTc9NRG7ThkzLek0+gIt5eYtJQ4tM7bY0zcbv+HCP0bX+8wAyQsX6NED/0kiQ/T/FwDg+Q0XCtj01i/D/TQdDDmY2yMuwi/fPQXXLAI+yiU4WSoF5U8ESagqHhJWKyQxBqESQbMxKvTS3lflRinnDgJHGf4bANr2Hg3I49XTPewaD7ff9t269OK7CiYr3krXJRIhGyPyOwMkM8r99AHbKPYc4v4qANlU1Ge4BuUxw88I/d/hxDYsO+ZIuCTB/CETvQFCyjg5CCDGI7NAsNDIFMoMCPsfv9So/vXxvwbR0fruTK7LRcjgP9nbPyfBAw/1JNMWVfwADusirupFP7BHJNPCAaznK+XiC3YMARC7Ct0M4D7kBRb3EuHz59Ts/wTYMccb/fvl6zb8Bi3N804HMCclFa3KD9UePycZIUO18dE3A+3A3RYozb8qBO42zPLV++LfIfcbw79CZfKr0/8l4xI4/uUO4/wsxDzQ7fbN5+wvHtcM/BNHKk/AEunY3/EP1fHm2gzzLwiQPyy7Jsf+LGLPLcM9+kEX6TgxQxLVGQA2Iu0QNOQdMQU1FQ0uzxu2/uLCyCgD9UK6v8XlTrz7EyHgwPS/4Brz603n5xDf4d0iJKMEw9Ys5iQo0CwCwS/Gwzj1CQsz7NnljxXs+ww9/t+8DMUKJMtNKRyvSlf6VAMLJCSgAOZCNgoSGA48A/7jvjhD6C5I1C/dKPZLxeI4CrS5u00p+7A9XqHs+y4eP9HfPeTVpFDAL1QY7Qkh+8hSNvgqBCrCU9w99Tj9JF3HC+0X6vEhF/DOREnctuHg/kQfQeH+/wooR6FTy+P3zv0ipQ3DqMbxIkQdxg9S7UTHx7AM0CJJwMX8xdzHRAMnJibv2VreCPAz4t7dD8jZDv28NP+9Fbzp9Qj0wzm9DrAzzMv9bbHZPTDn2ffT3uq/vSzR9xMUpLIkGPLc4tkdPKRB3Alesy3eSAri4EQu5wbKy9cB+hDDDlQRHKDtUBZlDNES18AH69DryBoxNQAgJAoGNPYw29rAMLXwUTK6ujTqT+wt7C1BAyz8HgYeMc48CjPSwQDG2ezrP/leNyrK3lPC9BXvzTDcAx8i9zgftf4I1Q4u+SvyBbexuxEhMwsvv9fX7Bv71jAgBBPHLgf71DCor//nBOnoEN+v78zb+LPHxtgx0+jJSitJ0iA11ivP5j/rygbRWumzHw7A5p6zD9Lo68f+hDkVL/Pg6zznCDjY6CntEQ3XrzLg6EgbPQYU8sQN/Lv9KkrQuS1KN/I5T/nZ0esclvjX4vNG9gwRU/M/76kP6ukm377l4hvEJvM6QgLv2goxysBEJlHMICGjuSXa2DY0DSMFUAgSO/JaaQftG1gvABUe/uHIHhMYJbTS8e8QHkwd0C0C/R0B5+YJDxHlxPIczkP4Dz/8CAA=","bias":[-0.0532375,-0.1032968,0.02977,0.0862383,-0.168695,-0.1350058,0.0769253,-0.1010538,-0.0306609,0.2174408,0.148415,0.1054189,0.1462123,0.1456037,-0.1492654,0.0290456,-0.0809565,0.1590794,-0.2506996,-0.0705357,-0.1531076,-0.0348212,-0.1198032,0.1926213,-0.1737069,-0.1625822,0.1636681,0.0364979,0.1257982,0.1084789,0.0201712,0.1984036]},{"activation":"linear","rows":32,"cols":3,"weight_scale":0.0023802838,"weights_q8_base64":"Ax4SP2r2N9MgcyIEcBugHc4SJWdV5S/OT9UdYheSURXXS85NEK8N+bb5+B/CuaBAmQvHLLkwp7wKopBXmufVk7fywKNZaWXwL8MMf18f5WUnOCtkz4lcLbpiO/4wcipn","bias":[-0.0702699,0.0408633,0.1970665]}],"output_labels":["openness","width","roundness"],"blend_with_signal_model":0.45,"quantization":"symmetric_int8_weights"}